UNK
<d>
cambodian
leader
hun
sen
on
friday
rejected
opposition
parties
'
demands
for
talks
outside
the
country
,
accusing
them
of
trying
to
``
internationalize
''
political
crisis
.
government
and
have
asked
king
norodom
sihanouk
host
a
summit
meeting
after
series
post-election
negotiations
between
two
groups
's
party
form
new
failed
leaders
prince
ranariddh
sam
rainsy
citing
threats
arrest
figures
alleged
attempts
his
life
said
they
could
not
negotiate
freely
in
cambodia
called
at
residence
beijing
however
that
i
would
like
make
it
clear
all
meetings
related
affairs
must
be
conducted
kingdom
told
reporters
cabinet
no-one
should
is
detrimental
sovereignty
he
people
won
64
122
parliamentary
seats
july
elections
short
two-thirds
majority
needed
its
own
charged
victory
was
achieved
through
widespread
fraud
demanded
thorough
investigation
into
their
election
complaints
as
precondition
cooperation
getting
national
assembly
moving
formed
concerns
over
safety
just
an
excuse
stay
abroad
both
been
since
parliament
ceremonially
opened
sep.
24
number
under
court
grenade
attack
phnom
penh
7
home
time
which
followed
by
police
crackdown
demonstrators
contesting
statement
released
accused
being
unwilling
any
compromise
break
deadlock
suggested
place
more
equal
footing
but
ruling
refuses
unless
able
threaten
negotiating
partners
with
or
worse
</d>
^
rejects
call
out
limbo
has
declined
requests
chair
top
saying
bring
progress
deadlocked
two-party
had
monarch
lead
top-level
disagreed
location
papa
will
preside
three
whether
held
because
such
certainly
achieve
no
result
wrote
oct.
17
letter
son
senior
funcinpec
copy
obtained
thursday
compromises
end
stalemate
:
ask
take
responsibility
before
nation
used
anniversary
peace
agreement
ending
civil
war
pressure
coalition
only
those
who
want
prolong
anarchy
instability
prevent
efforts
set
up
televised
speech
marking
1991
paris
accords
necessary
led
former
finance
minister
ram
refused
enter
until
allegations
thoroughly
investigated
international
monitors
relatively
free
fair
current
remain
power
long
one
remained
sept.
ceremonial
convening
politicians
following
do
feel
safe
inside
reservations
inappropriate
hold
so
far
proved
fruitless
except
opening
22
implied
follow
promises
made
if
results
are
strictly
respected
there
seems
reason
another
reportedly
fly
next
month
receive
medical
treatment
from
chinese
doctors
75-year-old
suffers
variety
ailments
periodically
makes
extended
trips
diagnosed
colon
cancer
1993
gone
remission
september
thousands
filled
streets
protest
against
ordered
demonstrations
least
four
were
killed
discovery
than
20
bodies
aftermath
prompted
speculation
death
tally
much
higher
blamed
violence
instigated
social
economic
chaos
declines
role
mediate
governmental
asian
development
bank
monday
stop
providing
loans
incumbent
calls
illegal
become
strongman
sen.
complained
members
return
issue
narrowly
_
claiming
intimidation
denied
vote
required
approve
meanwhile
says
old
holding
illegally
renewed
lobbying
campaign
adb
president
sato
calling
lending
money
we
advise
provide
regime
best
considered
caretaker
approved
french
ambassador
aide
prak
sokhonn
repeated
expressed
concern
community
may
security
guarantees
reports
attempt
problems
some
(
)
wanted
united
nations
help
guarantee
u.n.
secretary-general
representative
office
provided
returned
participate
monitoring
ended
30
our
received
official
request
operation
started
again
diplomat
jonathan
reaction
insisted
further
recently
guaranteed
diplomatic
revive
stalled
appeared
bear
fruit
japanese
foreign
secretary
state
machimura
less
weeks
abandoning
hope
influence
reach
now
strongly
interested
presiding
asks
seeks
block
opponents
responded
tuesday
criticisms
u.s.
congress
lengthy
defense
human
rights
record
criticized
non-binding
resolution
passed
earlier
this
house
representatives
violations
humanitarian
law
allegedly
committed
events
mentioned
include
coup
last
year
co-prime
violent
anti-government
submitted
senate
committee
relations
cpp
launch
appeal
senators
wisely
realistically
consider
draft
give
justice
approving
defended
ouster
proper
response
defections
khmer
rouge
rebels
also
claims
moved
rebel
soldiers
contention
remains
killings
nearly
100
supporters
documented
workers
dismissed
mostly
fabrications
meant
distort
situation
core
did
few
months
ally
accept
alleging
when
rallied
tolerating
resulted
deaths
protesters
later
discovered
many
bearing
signs
torture
around
capital
prompting
toll
supported
action
noting
public
property
damaged
grenades
thrown
fire
cruise
missiles
staged
begin
ones
consequences
referring
deadly
minor
incidents
reminded
states
washington
exile
dominated
brutal
1980s
responsible
2
million
during
guerrilla
group
rule
border
clashes
ousted
invading
vietnamese
army
communist
policy-makers
taking
timely
save
unjust
accusations
struggle
liberate
genocide
added
defends
criticism
us
rejection
counter
right
probe
;
responds
freedom
ease
fears
rivals
arrested
assurances
aimed
especially
forced
refuge
offices
avoid
him
behind
plot
14
holed
overseas
deal
reached
chief
rival
forming
week
door
father
head
broadcast
television
applied
come
first
session
wednesday
unsatisfied
contained
indirect
language
loopholes
suggest
still
threat
easy
say
srp
charges
instead
roundabout
statements
full
can
easily
exploited
legal
system
completely
control
believed
speaking
upon
brief
bangkok
soon
meet
discuss
apportioning
ministries
agreed
leave
sole
prime
assures
men
served
ministers
overthrew
think
got
everything
premiership
legitimacy
recognition
n't
benefit
cause
general
nhek
bunchhay
given
back
previous
position
second-ranking
military
staff
outnumbered
forces
put
tough
unsuccessful
resistance
satisfied
fearful
wary
worried
colleagues
face
politics
sought
clarification
promised
eager
attend
nov.
25
strong
enough
announced
conduct
activities
accordance
laws
force
obtaining
promise
prosecution
staunch
critic
assassination
came
massive
street
organized
polls
fearing
exodus
lawmakers
late
whose
finished
close
second
struck
working
hammer
details
including
establishment
upper
sok
representing
completed
work
joint
platform
implemented
emphasize
administrative
judicial
reforms
reveal
announce
presents
choices
doubts
stronger
assurance
returning
safely
praised
agreements
previously
bitter
sent
news
agencies
copies
signed
firm
fiscal
functions
protocol
uncompromising
enemies
ago
13
convened
key
formation
chea
sim
outgoing
recalling
procedures
past
appoint
remaining
selected
method
half
large
other
how
promulgation
legislation
yet
ironed
praises
honduras
braced
potential
catastrophe
hurricane
mitch
roared
northwest
caribbean
churning
high
waves
intense
rain
coastal
residents
scurrying
safer
ground
carlos
flores
declared
maximum
alert
honduran
planes
pluck
homes
islands
near
coast
gmt
95
miles
152
kilometers
north
swan
winds
180
mph
kph
even
gusts
category
5
monster
highest
most
dangerous
rating
storm
wide
west
8
12
closing
monterrey
cardenas
mayor
utila
island
32
off
god
posed
immediate
forecasters
expected
five
days
weather
service
miami
weaken
somewhat
warned
very
capable
causing
catastrophic
damage
entire
warning
15
inches
38
forecast
mountain
areas
closed
schools
air
helicopters
evacuate
de
la
bahia
string
small
central
armed
gen.
mario
hung
pacheco
5,000
standing
victims
everyone
need
300
hercules
does
effect
guatemala
belize
watch
early
panic
buying
stripped
bread
shelves
stores
gasoline
stations
ran
dry
city
hit
hard
built
inland
mexico
mobilized
troops
emergency
east
yucatan
peninsula
cuba
evacuated
600
vacationers
youth
jerry
center
director
strongest
strike
1988
gilbert
ceiba
northern
stood
lines
filling
buy
steady
maria
gonzalez
she
gas
cook
her
gets
wet
bought
37
cents
worth
afford
six
children
live
really
bad
'll
go
church
see
what
architect
world
store
jackson
fisherman
tied
boats
family
relative
spokesman
ivan
mejia
segovia
rivers
overflowed
banks
along
eastern
frightened
mountains
search
shelter
el
160
tegucigalpa
low-lying
banana
plantations
river
soliman
resident
down
swept
jamaica
cayman
flooded
jamaican
kingston
caymans
british
colony
recent
memory
1974
ravaged
killing
2,000
brace
approaching
countries
wrath
prepared
approached
cut
devastating
third
day
resort
mainland
communities
flooding
seek
once
among
century
powerful
hurricanes
weakened
today
blasted
american
bringing
50
kicked
huge
pounded
seaside
easing
sustained
80
130
midnight
well
below
290
peak
virtually
stationary
slightly
south
hurricane-force
rain-laden
tropical
extending
beyond
caught
heart
bay
about
40
popular
divers
destroyed
almost
mike
brown
houses
officials
died
alone
nine
elsewhere
shelters
reported
region
drifted
seemed
park
boat
cancun
presumed
dead
eight
others
nicaragua
200
towns
villages
isolated
left
without
telephones
clean
drinking
water
agriculture
pedro
arturo
sevilla
crucial
grain
crops
future
uncertain
rain-swollen
knocked
bridges
roads
isolating
40,000
located
128
10,000
fled
crowded
churches
while
supplies
food
drivers
coming
fill
tanks
supermarkets
took
measures
limit
appealed
pure
plastic
buckets
collect
hotels
generators
electricity
wind-whipped
buried
shore
wading
sodden
bags
belongings
heads
neighboring
turning
largest
ghost
town
patrolled
wandered
amid
cable
company
broadcasting
channel
seemingly
anchored
eased
where
hundreds
precaution
night
tourists
abandoned
nearby
leaving
percent
capacity
houston
accountant
kathy
montgomery
friend
nina
tried
found
flights
horrible
drank
cocktails
outdoor
restaurant
n
charlie
frog
restaurants
vacation
agency
each
rescue
relief
allen
1980
labor
weakens
destruction
3rd
slowly
devastation
commission
saturday
salvador
140
flash
floods
21
away
guard
widened
tourist
31
aboard
heard
sunday
dropped
classified
depression
southern
pacific
guatemalan
threatened
strengthen
sea
missing
leaves
trail
nears
brussels
belgium
ap
-
european
union
6.4
currency
units
dlrs
7.7
aid
caused
america
eu
pietro
funds
basic
care
medicine
sanitation
blankets
torrential
rains
mudslides
distributed
suffered
passage
executive
estimated
7,000
greatest
losses
600,000
10
population
flee
listed
96
27,000
homeless
regional
affiliate
san
miguel
province
125
storm-related
latest
follows
initial
400,000
ecu
8.18
channeled
approves
$
votes
pope
john
paul
ii
stricken
feels
suffering
audience
urged
private
institutions
good
grave
moment
9,000
throughout
disaster
proportions
overwhelmed
attending
russian
cosmonauts
special
course
italy
gift
gave
spacesuit
appeals
better
information
countryside
enabled
lower
confirmed
growing
years
1.5
hondurans
affected
recovery
effort
county
awaits
fervent
constant
every
mexican
teams
began
searching
avalanche
dispensed
vaccinations
disease
outbreaks
crammed
refugees
6,076
estimate
numbers
11,000
4,621
urbizo
access
places
explained
amount
resources
get
reliable
volcano
crater
lake
collapsed
seven
costa
rica
governments
send
canned
materials
equipment
deliver
bill
clinton
department
services
36
fuel
white
dispatching
tipper
gore
wife
vice
al
mission
show
commitment
hillary
rodham
travel
visiting
16
continuing
haiti
dominican
republic
visit
canceled
due
georges
october
sat
several
scores
crossed
florida
damaging
mobile
buildings
injuring
begun
calculate
authorities
know
across
surveyors
evaluate
roughly
departments
francisco
includes
vary
wildly
90
major
highways
highway
main
north-south
route
hoped
scale
next-door
overshadow
plight
problem
operations
comparison
scope
total
helicopter
missions
delivering
col.
roger
antonio
caceres
task
manage
aircraft
little
distribute
way
sending
700
tons
11
cargo
19
blackhawk
chinook
plane
france
250
ship
loaded
construction
material
program
diverting
ships
already
rush
cargoes
donated
pulling
warehouses
base
rome
probably
delivery
trevor
rowe
're
move
fast
possible
searches
continued
decomposed
common
graves
flood-ravaged
neighborhood
esperanza
rescuers
dogs
backs
muddy
look
occurred
dozens
've
maj.
freddy
diaz
here
continue
downriver
concerned
conditions
produce
hepatitis
respiratory
infections
health
ministry
inoculation
housing
4,000
polytechnic
institute
'd
word
medicines
vaccinate
dr.
soto
treated
diarrhea
bacterial
rushed
devastated
pledge
un
struggled
survivors
danger
dying
starvation
wake
pledges
assistance
poured
reduced
reaching
trickle
valley
floodwaters
receded
carpet
mud
acres
hectares
potable
baby
village
feared
die
worst
thing
rev
escobar
parish
priest
score
landed
normally
quiet
airport
japan
argentina
jimmy
carter
intended
learn
impact
atlanta
attention
created
requested
global
boosted
70
delegation
destined
lady
trip
plans
beginning
taiwan
donate
2.6
dwindling
recognize
china
breakaway
area
exercise
join
coincidence
clare
offer
flies
nicaraguan
means
transport
support
leftist
sandinistas
maintained
fidel
castro
1979-90
refusal
arnoldo
aleman
administration
pours
exceeds
hampered
deliveries
severe
cuban
london
chilean
dictator
augusto
pinochet
case
meddling
me
happened
universal
covering
ibero-american
breakfast
juan
spain
hotel
unprecedented
unusual
82
placed
acting
warrant
issued
spanish
judge
probing
spaniards
chile
1970s
80s
protested
insisting
senator
traveling
passport
immunity
latin
authoritarian
lacked
thought
eduardo
frei
uncomfortable
compared
august
criminal
ought
independent
council
commands
apparent
reference
voted
creating
serious
...
delicate
reactions
watching
surprise
england
1982
falkland
although
neutrality
intelligence
joked
waited
hours
having
talking
1990
march
became
senator-for-life
protests
disagrees
terms
britain
lawmaker
claim
ridiculous
argue
release
vowed
hire
attorneys
defend
82-year-old
ruled
iron
fist
bed
hospital
wants
question
murder
decade
seized
1973
9
idea
pretty
gut-wrenching
stuff
trade
peter
mandelson
corp.
interview
alun
michael
acknowledged
entered
necessarily
convey
business
accredited
diplomats
regular
visitor
generally
publicity
reflect
tougher
attitude
toward
right-wing
dictators
tony
blair
replaced
conservative
18
ethical
policy
howard
lobby
magistrate
order
tantamount
recognizing
lived
present
inherited
porto
portugal
allowed
start
trial
abuses
franco
?
courts
try
reign
1975
insult
thanking
rightist
guards
deployed
clinic
patient
pleased
gathered
chanting
waving
placards
faded
black
portraits
caption
disappeared
atlantic
santiago
scene
reflecting
long-standing
division
opinion
rallies
peaceful
riot
tear
cannons
embassy
evening
arrests
injuries
envoy
advice
jose
insulza
team
available
posts
flying
boss
extradition
formally
apply
final
decision
lies
jack
straw
questioned
sources
condition
anonymity
questioning
widely
running
ruthless
marked
disappearances
applications
judges
investigating
baltasar
garzon
dissidents
referred
1983
identified
catholic
priests
according
report
4,299
term
commander-in-chief
constitution
crafted
covered
amnesty
crimes
1978
condemns
margaret
thatcher
entertained
ex-prime
domestic
controversy
fight
extradite
drinks
husband
denis
elite
district
hospitalized
surgery
performed
regarded
mark
welcomed
visits
included
tea
reclaim
similar
brands
economics
elected
delivered
formal
violated
arrived
protects
vanished
broadened
chileans
artaza
himself
duty
protect
citizen
status
protecting
'70s
radio
fighting
discussing
transition
understand
period
dictatorship
specialist
perhaps
faces
battle
proceedings
appearance
bow
accuse
gesture
pandering
left-wing
hosted
met
grows
seeking
brewing
despite
written
published
newspaper
vein
joaquin
perez
detained
ailing
recovering
detention
stand
terrorism
17-year
warmly
activists
worldwide
sparked
1997
biggest
single
investor
closely
quoted
mundo
unrelated
so-called
apparently
ignoring
leftists
within
moves
prosecute
systems
treaty
nobody
use
criteria
act
tone
comment
contrasted
sharply
emotional
influential
britons
find
convention
gives
via
aznar
rubber
stamp
process
reaches
desk
appears
hoping
never
prosecutors
investigations
underpin
depending
pronounce
edition
madrid
pais
1973-1990
none
favor
nullify
awaiting
big
investors
fear
legislators
brink
turmoil
climate
confrontation
deputy
alberto
espina
triggered
celebrations
relatives
retired
accompanied
movoa
julio
lagos
offshoot
larger
parliamentarians
currently
protesting
behalf
democratic
renovation
talk
stops
internal
arguing
dealt
stopped
intention
becoming
josep
pique
state-owned
annulled
challenges
deadline
presenting
november
coincidentally
birthday
prosecutor
motion
rulings
plenary
decide
challenge
jurisdiction
difficult
likely
hang
interpreted
these
specifically
code
charge
debates
proceeding
europe
extradited
sometimes
wherever
unpunished
jacques
santer
step
great
citizens
1973-90
oviedo
asturias
prize
science
annual
prizes
named
heir
throne
fully
aware
predicament
daily
aides
shielding
rage
kill
reporter
talked
briefly
lucia
hiriart
daughter
veronica
knew
truth
waiting
permission
scotland
yard
eighth
floor
particularly
urinary
infection
diabetes
room
keep
sight
paper
telephone
informed
policemen
convinced
mistake
protected
station
officer
unidentified
reacted
calmly
soldier
endorses
ec
hopes
urges
punishment
fate
hands
interfere
myself
mr.
agree
matter
avoided
commenting
intend
comments
journalists
margin
alpine
lakeside
grounds
argued
entitled
bid
important
nonsense
stupid
facing
depends
pms
wo
swiss
accounts
belonging
weekend
petition
freezing
might
luxembourg
switzerland
achille
frozen
federal
banking
kidnapping
complaint
filed
geneva
widow
alexis
student
dual
nationality
1977
priority
content
joins
avoids
takes
freeze
investigate
munich
germany
20-day
extension
paperwork
lieutenant
saudi
terrorist
suspect
osama
bin
laden
mamdouh
mahmud
salim
sudan
jailed
bavarian
german
turn
supporting
evidence
gerhard
zierl
hearing
extra
quoting
enforcement
focus
newsmagazine
turned
magazine
based
testimony
fbi
informant
associate
vague
connections
precautionary
measure
helped
train
arm
organization
bombers
embassies
kenya
tanzania
unsealed
york
conspiracy
weapons
mass
prepare
sudanese
african
bombings
nairobi
agents
aug.
bombing
seriously
injured
attorney
blast
building
downtown
213
americans
5,400
simultaneous
dar
es
salaam
85
gathering
recorded
pre-sentencing
phase
trials
indicted
connection
wadih
hage
mohamed
sadeek
odeh
rashed
daoud
al-'owhali
pleaded
innocent
fazul
abdullah
mohammed
fugitive
mastermind
targets
muhammad
atef
commander
al-qaeda
separate
238-page
indictment
living
afghanistan
provides
terror
attacks
carried
soil
questions
indictments
witnesses
6
suspects
preparing
attackers
prepares
3
writing
articles
encourage
muslim
youths
stage
islamic
revolution
bangladesh
taliban
model
mufti
abdul
manzoor
ahmed
editors
mujahid
dhaka
bangladeshi
shortly
allows
detain
offenses
taken
reproducing
afghanistan-based
billionaire
masterminding
rules
women
study
kinds
light
entertainment
music
banned
grow
beards
certain
length
criminals
subjected
amputations
executions
though
predominantly
governed
secular
sheikh
hasina
liberal
recognized
promoting
inciting
encouraging
nabs
writers
lauding
man
orchestrating
hard-line
militia
three-week
inquiry
waging
presented
noor
saqib
associated
press
supreme
afghan
kabul
sin
activity
respect
amir
khan
muttaqi
disputed
assertions
rich
dissident
assets
immediately
corroborated
finds
guilty
vs.
u.s
declares
anti-us
frees
proof
--
albania
uncovered
network
operated
fundamentalist
africa
infiltrated
parts
times
fatos
klosi
albanian
kosovo
serbian
egyptians
algerians
tunisians
kuwaitis
different
organizations
telling
terrorists
bases
traffic
immigrants
smuggled
mediterranean
interpol
believes
100,000
blank
passports
stolen
riots
ample
opportunity
acquire
false
papers
confirmation
claude
kader
27
self-confessed
member
claimed
visited
recruit
fighters
associates
established
1994
wealthy
wishing
serbia
too
links
link
owner
factory
missile
backed
suspected
shows
salih
idris
shifa
pharmaceutical
plant
khartoum
financial
dealings
jihad
anwar
sadat
1981
receives
sponsorship
absorbed
ties
either
tim
pendry
london-based
adviser
absolutely
relationship
anywhere
spoken
nor
knowingly
anyone
agent
increase
iraqi
presence
iraqis
doing
manager
frequent
iraq
chemical
addition
sample
cia
clandestinely
showed
production
vx
nerve
comes
objected
suspicion
poor
data
1995
1996
informer
withdrawn
january
anthony
then
impossible
confirm
involvement
direct
linking
directly
suspicions
acknowledge
owned
ownership
irrelevant
lot
reliably
publicly
expatriate
lives
arabia
46
commercial
stake
industrial
corporation
entity
controls
testing
poisonous
gases
businesses
consolidated
bombed
denies
tie
linked
object
unstated
objectives
raid
lieutenants
lawyers
secret
review
concluded
timed
camps
operatives
bars
plotting
carrying
assassinations
drafted
asserts
authority
target
infrastructure
attacking
counterterrorism
objective
disrupt
training
khost
david
c.
leavy
targeting
mean
destroying
leadership
command
enemy
discussed
planning
sessions
interviews
simply
side
believe
camp
unscathed
casualties
complex
spokesmen
drawn
distinction
attempting
specific
person
leading
interests
subtle
explanation
offered
william
cohen
going
quite
successful
message
kenneth
bacon
pentagon
retracted
los
angeles
significant
spring
daring
capture
same
justification
basis
violate
presidential
banning
ban
imposed
ford
congressional
investigators
plotted
assassinate
employed
shall
engage
conspire
sweeping
unqualified
subject
interpretation
debate
1986
reagan
libya
libyan
moammar
gadhafi
gulf
bombs
saddam
hussein
appear
precedent
circumstances
goal
admits
qaeda
rekindles
sometime
summer
operative
personal
computer
hideaway
angry
dispatch
author
learned
media
writer
haroun
fazil
noted
alarm
striking
bureaucratic
tones
fallen
breathing
necks
precautions
cell
extraordinary
bit
digital
retrieved
staying
kenyan
attended
documents
translated
read
document
timing
potentially
mounting
adequately
warnings
point
file
eluded
traveled
comoros
middle
remarkable
insight
workings
twilight
20th
fellow
cnn
internet
communicate
refers
complains
kept
loop
decisions
casual
fashion
planted
laid
somalia
followers
whom
sheik
primary
comrades
aiming
identify
names
residences
knows
gateway
concluding
asserted
duties
transmit
khalid
fawwaz
directed
informal
translation
part
package
forwarded
initially
accuses
conspiring
count
soliciting
run
shoestring
mother
ill
homeland
you
mind
500
repeatedly
midst
kidnapped
shooting
employees
lured
pakistan
went
play
pivotal
assert
rented
villa
bomb
assembled
surveyed
drove
pickup
truck
vehicle
ready
wreaked
havoc
earth
inform
underground
intensified
sheds
ever
stands
acts
witness
cs-1
manhattan
worked
1989
ordering
cited
source
assertion
attempted
obtain
nuclear
known
custody
somewhere
hiding
protection
records
swore
affidavit
notary
adamantly
anything
identity
confidential
turncoat
sidi
tayyib
businessman
married
inflamed
cooperating
article
telegraph
defection
commanders
explode
appropriate
summary
typed
filing
thus
suggesting
testify
arrangement
plea
bargain
receiving
lesser
sentence
indication
sentenced
sentencing
ensuing
complete
pleading
stemmed
described
oath
allegiance
orders
detailed
account
history
inner
stationed
signature
urging
muslims
whereabouts
unknown
in-law
scoop
critical
basketball
association
players
arbitrator
feerick
decides
contracts
paid
lockout
win
owners
liable
800
salaries
lose
league
sued
emboldens
spirit
resolve
billy
hunter
anybody
celebrating
pay
indicated
intent
payment
hollow
circumstance
remove
wild
card
sides
negotiated
proposed
superstar
tax
counterproposal
asking
threshold
proposal
afternoon
unlikely
nba
advisory
las
vegas
sense
reasonable
willing
season
commence
grievance
1
announcement
june
29
honor
deals
six-day
themselves
stoppage
inserting
standard
player
contract
sacramento
kings
inserted
clause
existence
similarly
paychecks
dozen
clauses
paycheck
tenet
employers
withhold
simon
understanding
chose
reopen
impose
salary
arbiter
cost
classic
small-town
prodigy
creativity
shot
invented
pass
teammate
open
larry
bird
indiana
boston
garden
exception
governing
why
retirement
name
prominent
induction
hall
fame
watchers
civic
deservedly
enshrined
forever
exceptional
becomes
contentious
disastrous
troubled
likelihood
legendary
symbol
greed
millions
always
attached
things
happy
celtics
compensate
bonus
push
pain
savior
arbitration
involving
knicks
patrick
ewing
falk
contend
conspired
circumvent
cap
satisfy
alan
greenspan
am
sure
convoluted
headache
let
exist
re-sign
particular
eventually
making
onetime
expensive
anymore
pacers
coach
franchise
stability
fan
identification
goes
played
young
college
numbered
championships
pro
famous
magic
johnson
renaissance
title
showdown
salt
spread
infectious
smile
selflessness
jordan
greater
heights
imagined
sickness
soul
done
survive
fitch
walton
closure
playing
career
exaggerating
misery
easier
root
boycott
corporate
fingerprints
helps
commentary
stern
annex
leads
playoff
waged
exceptions
unexceptional
rewards
field
allowance
truly
sport
champions
game
sports
dreaming
hype
ball
shirts
blue-collar
ethic
hired
bob
original
rookie
contender
rare
honest
inducted
exceed
cancellation
preseason
games
collective
bargaining
cancel
nonetheless
signal
settle
dispute
abbreviated
sign
privately
scheduled
december
unlike
baseball
football
hockey
lost
regular-season
strife
conclude
miss
commissioner
russ
granik
defer
minute
walked
dismissing
merits
neither
sounded
signing
precursor
choice
fact
locked
outcome
fordham
school
dean
test
fans
loyalties
canceling
cities
make-shift
conferences
training-camp
venues
arenas
teammates
speak
purchase
n.y.
originally
afterward
wish
energies
rather
various
essentially
divvy
billion
income
share
pot
terminate
figure
hovering
57.1
issues
resolved
expired
whatever
regardless
allow
forward
exercised
chicago
bulls
earning
per
spend
exorbitant
unproven
stars
sprouting
routinely
determined
swing
pendulum
enforcing
restricted
putting
ceiling
earn
dollars
benefits
proposals
average
3.1
minimum
10-year
veterans
unfortunately
consideration
labeled
optimistic
projections
gotten
anyway
indefinitely
postponed
exhibition
tickets
sales
losing
35
cancellations
blocks
regarding
suddenly
starting
hurdles
overcome
quickly
expect
real
substantive
something
happen
cave
ingested
passes
cancels
date
opener
doubt
cancelled
collapse
sound
demanding
'm
themes
unrest
unity
proclaim
practice
flanked
supposed
predicting
first-ever
philosophical
differences
glimmer
spoke
quick
feet
quantum
leap
jockeying
rhetoric
lambasting
eventual
phasing
enables
unlimited
represents
rift
implement
restrictive
speedy
entrenched
ignorant
joke
backwards
earnest
wrong
respond
perception
besides
buck
williams
herb
allan
starks
marcus
horde
facility
gym
rockets
elie
everybody
corrected
elicited
possibly
mediator
solve
genuine
headway
leverage
400
athletes
extravagant
lifestyles
tremendous
obligations
allegiances
instantly
tested
dug
apart
grand
canyon
complain
embroiled
99
implementation
salvage
alonzo
mourning
heat
four-week
signings
starts
sad
disappointed
failure
honestly
else
seventeen
presidents
richmond
mutombo
ty
madison
square
dave
abe
gordon
cleveland
les
alexander
phoenix
featured
bevy
concessions
felt
accommodate
desire
revenue
involves
distribution
approximately
sticking
insistence
line
growth
elimination
secure
re-signing
address
taxation
points
earned
above
affect
example
fund
provisions
jeffrey
kessler
counsel
luxury
credit
pays
63
revenues
reduces
63-percent
reduction
raises
multi-year
rate
clearly
addresses
re-opened
substantially
fourth
incoming
rookies
meaning
seasons
kevin
garnett
parlayed
astronomical
minnesota
finally
marijuana
substance
discussions
performance-enhancing
drugs
provision
creation
buoyed
decided
submit
eye
valiant
financially
tired
refunds
calendar
refund
monies
kind
needs
economically
possibility
owe
notion
promising
favorable
surprising
represent
shift
prior
reluctantly
hammered
preserving
perfect
accord
works
dramatic
breakthrough
jeopardy
fail
plan
management
long-awaited
ramifications
counting
speed
award
approach
vacated
appealing
2nd
circuit
litigation
pending
intends
renew
disqualify
brought
existed
therefore
hear
alive
render
watched
carefully
locked-out
missed
1994-95
non-payment
lockouts
strikes
individual
arguments
pointed
relying
tenets
deterrent
factor
expires
unable
incentive
reality
spur
conference
openly
ultimate
goals
demonstration
change
saw
posturing
tell
hock
settled
case-by-case
yes
steve
kauffman
explore
client
nets
professional
greece
void
temporarily
exchanged
concept
termed
unacceptable
unclear
possibilities
explored
meaningless
charitable
ca
solution
slow
relation
await
battles
weird
standards
dominating
discussion
considering
disappear
produced
unbalanced
immense
class
fell
33
movies
stem
rise
loophole
lets
adopted
assumed
negotiation
payroll
1.2
split
raising
guaranteeing
preserve
market
broadcasters
nbc
warner
channels
fees
wait
unhurried
aside
suicide
tactic
antitrust
sky
reject
sham
prolonged
destroy
popularity
troubles
memories
choose
whole
attacked
western
uganda
civilians
overnight
chiondo
270
170
kampala
lt.
majera
allied
operate
straddle
post
gunfire
alerted
adding
assailants
operating
often
knives
machetes
ammunition
guns
congo
flush
adf
yoweri
museveni
insists
ugandan
congolese
laurent
kabila
backing
topple
anti-kabila
lord
operates
enjoys
alongside
together
government-owned
vision
lra
joseph
kony
badly
wounded
juba
liberation
autonomy
pitched
muruli
spla
sites
state-run
ugandans
drive
two-month
oust
explain
ernest
wamba
dia
using
story
56-year-old
professor
university
rally
democracy
web
site
rebellion
illinois
ethnic
tutsis
disenchanted
mismanagement
corruption
sowing
dissent
tribes
lightning
advance
third-largest
outskirts
kinshasa
angola
zimbabwe
namibia
confined
chunk
territory
extreme
puppets
rwanda
posting
dispatched
raise
awareness
conflict
familiar
tutsi
movement
lecturer
california
lakes
congressmen
web-site
kindu
strategic
airbase
halt
advances
etienne
ngangura
adjacent
380
235
goma
stronghold
independently
stiff
arms
targeted
retreat
kisangani
gains
build
planned
counter-offensive
120
75
road
strength
boost
morale
persuade
neighbors
initiatives
bloody
rear
three-day
hand
airstrikes
assemble
richard
mondo
shelling
expecting
shipments
munitions
bolster
offensive
unloaded
kalima
northeast
serving
sweaty
weary
limping
airlifted
rwandan
faced
fac
warding
effectively
launched
defending
positions
counterparts
demonstrate
carry
rest
routes
katanga
provinces
copper
diamonds
bail
reinforced
betraying
eight-month
divisions
sustain
difficulties
passenger
jet
ferrying
assault
airlines
1,000
stavros
papaioannou
airline
engine
boeing
surface-to-air
3,500
preparation
government-held
intercepted
messages
arrival
727
6th
graf
pvs
downed
civilian
jetliner
allies
pushed
showing
confidence
victor
week-old
elila
bridge
fired
barrage
artillery
quarters
kalunga
surrounded
directions
retreated
corridor
land
fleeing
war-weary
physically
exhausted
marched
dense
forest
reinforce
battling
outright
revolt
warmongering
launching
pad
unconfirmed
chad
involved
installed
sponsoring
legitimate
failing
rid
essential
routing
mid-august
one-third
poised
overrun
scorching
sun
column
reinforcements
heading
sneaked
roadside
hamlets
silence
interrupted
singing
crickets
bullet
belts
hanging
empty
huts
palm
rested
shade
acacia
trees
path
developments
tarmac
eludes
defenses
surround
airfield
shoot
golden
kasuku
wa
farm
farmers
northeastern
quarter
broke
inter-tribal
rivalry
looting
rebellions
wiped
cattle
slashed
coffee
exports
green
pastures
sparkling
volcanic
zone
surviving
sack
beans
insecurity
italian
settler
refugee
nepotism
fostering
tribal
rebel-controlled
settlement
trading
kivu
longer
trekking
gorillas
decaying
shops
crumbling
guest
displaced
revitalize
economy
reducing
taxes
investment
servants
seen
invite
farms
gold
increased
animosity
tiny
highly
minority
freedoms
revived
unresolved
disputes
hutus
1930s
warriors
stealing
joined
engulfed
30,000
hutu
militiamen
ideology
sold
persecution
landowners
ranchers
misunderstood
safari
farmer
blood
dislodged
mobutu
sese
seko
changed
zaire
blame
powers
paying
interest
warfare
intrigue
suffer
ruins
indonesian
b.j
habibie
asia-pacific
malaysia
thai
philippine
estrada
forum
ibrahim
my
english-language
forget
contributed
charismatic
politician
picked
successor
long-serving
mahathir
mohamad
differed
engaging
homosexual
pretext
bruised
beaten
heightening
chance
tortured
dismissal
proven
apec
consult
personally
211
indonesia
abuse
endangers
beating
malaysian
pm
skip
boycotting
replacement
72
drop
candidates
job
malays
conducting
malaysians
confer
guilt
innocence
giant
drawing
reform
bypass
groomed
51
protege
morally
unfit
dumped
nationwide
resignation
seeing
denounced
flocked
kuala
lumpur
baton-wielding
dispersed
crowds
arresting
bernama
sarawak
borneo
umno
neck
drew
philippines
raised
18-nation
downgrade
mistreated
wall
journal
wearing
court-ordered
checkup
abusing
resume
sodomy
prison
fine
plus
whipping
sexual
convicted
jail
risk
list
star
favorites
ahmad
badawi
education
najib
tun
razak
contenders
confidant
daim
zainuddin
rafidah
aziz
industry
tengku
razaleigh
hamzah
locals
govt
pick
one-on-one
chat
hinted
sex
bruises
singapore
ali
alatas
southeast
half-hour
difficulty
delayed
minutes
mechanical
fault
flown
entourage
heavy
ferry
chartered
journey
apologized
melia
panorama
replied
alois
inaugural
fairer
wealth
predecessor
mentor
suharto
collapsing
summoned
brillantes
eldest
happening
manila
ferdinand
marcos
filipinos
react
perceived
culture
premier
appearing
considers
asia
rim
upcoming
misconduct
politically
motivated
waver
moral
expression
reprimanded
opens
observers
silent
aspirations
summons
grills
filipino
promote
assured
victim
canada
cracking
ruler
booming
planet
thailand
korea
bite
comply
monetary
grown
anchor
recession
ryutaro
hashimoto
driven
pro-democracy
populous
trouble
coping
steep
downturn
wonder
impeachment
thanks
monica
lewinsky
scandal
economists
criticizing
imf
handling
bailouts
free-market
philosophy
vulnerable
speculators
self-defense
mechanisms
hong
kong
spent
fortune
investing
stock
ward
hedge
reserve
investments
dollar
tailspin
yen
ironically
typical
credited
modern
mess
stepping
thwart
charging
scheduling
australia
s.
wolf
aim
productive
gatherings
bailout
strategies
bilateral
reduce
tariff
rates
struggling
improve
lousy
silver
welcome
develop
lift
barriers
industries
environmental
products
energy
fisheries
forestry
toys
jewelry
goods
telecommunications
consists
brunei
zealand
papua
guinea
russia
vietnam
peru
urge
asians
recessions
bowing
planner
lee
teng-hui
chiang
17-18
giving
invitation
presentation
politely
formality
maintain
dignity
attends
stand-in
argues
sovereign
bows
keeps
advised
battered
economies
adopt
restore
steps
restructure
corporations
susceptible
narrow
governors
framework
aims
plunged
currencies
demand
unemployment
characterize
boasted
worsening
gloom
dominate
risks
slower
mention
programs
worst-hit
stanley
fischer
managing
reformed
sectors
stressed
restructuring
predicted
declare
ends
expelled
fabricated
topic
agenda
menu
local
dishes
luncheon
two-day
hot
affair
spicy
delicacies
beef
chicken
peanut
sauce
ayam
curry
soup
fried
rice
editions
desert
simple
fresh
marsden
lodge
features
cuisine
lunch
high-powered
applauded
perk
staggering
packages
chuan
leekpai
u.s.-asean
confident
companies
invest
applaud
front
your
chairman
george
ceo
technologies
focuses
resolving
debt
hindering
aggressive
impressive
comprising
substantial
executives
represented
concentrated
removing
tariffs
affirmation
free-trade
touts
likes
delegates
businessmen
converge
hardly
provocative
discontinued
ringgit
flow
markets
slammed
champion
jeers
makers
fix
desperately
odd
recovered
malaise
indicate
moribund
reserves
rose
anecdotal
consumers
nice
improved
yusof
studies
research
policies
sustainable
critics
predictable
short-term
tonic
sheltered
vagaries
flows
fluctuations
consumer
spending
mere
experiment
yielded
positive
fiery
advocate
penchant
skin
westerners
outspoken
yew
boon
analyst
jiang
zemin
muzzle
gambit
tempted
stick
devised
stresses
austerity
sympathy
economist
massachusetts
technology
advocated
vindicated
insulate
itself
ravages
underscored
sudden
destructive
long-term
greenwich
conn.
wrecked
bets
treasury
securities
flight
fiasco
picking
pieces
shattered
balance
purchases
durable
wholly
experts
monthly
comforting
alarming
merely
restrictions
stipulated
worthless
repatriated
skeptics
reductions
cars
appliances
dipping
savings
spree
depleted
argument
imposing
regain
supply
lessen
liquidity
crunch
jomo
malaya
flaw
spooked
would-be
locking
temporary
imposition
avert
rupiah
baht
actually
rebounded
suspended
fixed
exchange
3.8
analysts
insurance
slowing
much-needed
conglomerate
ahead
predict
scrap
much-criticized
connected
tense
angrily
sensational
reminder
72-year-old
clashed
boom
wrapping
traders
precipitated
stirred
anger
usually
orderly
soothe
agitated
chandra
regard
embattled
institutes
vs
capitol
fixes
israel
ratify
wye
palestinians
crack
yasser
arafat
palestinian
fulfilled
commitments
militants
convene
abrogate
charter
israeli
sorrow
relentless
har
homa
traditionally
arab
sector
jerusalem
groundbreaking
postpones
pact
delays
ratification
car
rigged
explosives
blew
morning
mahane
yehuda
packed
israelis
shopping
jewish
sabbath
wounding
militant
hamas
verification
indeed
controversial
benjamin
netanyahu
mile
kilometer
entrance
meters
yards
explosion
red
fiat
a.m.
explosions
43
driving
smoke
hood
exhaust
pipes
shout
stomach
twisted
metal
sitting
intersection
flames
charred
corpse
blanket
lay
body
pool
cardboard
box
hysteria
policeman
patrolling
lightly
woman
shock
climbed
ambulance
weeping
paramedics
persuading
moments
gloves
!
shouted
shoppers
happens
hassan
asfour
negotiator
condemned
crime
whoever
commits
hurts
stalls
kills
wounds
suspend
land-for-security
jersualem
clarified
procedure
revoking
plo
founding
divergent
interpretations
rescinded
palestine
suspends
'til
explosive
radical
heroic
leaflet
faxed
refuse
zionist
style
consistent
communications
syrian
damascus
ramadan
shallah
paris-based
monte
carlo
families
rounded
anonymous
phone
inaccurate
stopping
perpetrator
vows
executed
defiant
neighborhoods
crowd
2000
breakdown
remarks
provocation
sensitive
madeleine
albright
expects
understands
delay
israeli-controlled
bore
identities
disclosed
jenin
actual
funerals
zughayar
54-year-old
yusef
proud
loved
suleiman
musa
dahayneh
sister
brother
jews
prayers
ring
danced
rabbis
miracle
saved
setting
quarrel
wings
outlawed
israeli-palestinian
23
snags
bar-illan
outlaw
wing
qassam
legislature
memorandum
actions
character
structure
participants
amin
hindi
preventive
gaza
strip
outlawing
endangered
movements
finger-pointing
partial
jails
harshly
palestinian-controlled
prisons
abu-medein
delaying
praying
escape
yitzhak
mordechai
clash
warm
sunny
youssef
sughayer
goodbye
grandmother
rode
21-year-old
brother-in-law
holy
car-bomb
grieve
farewell
note
cry
happiness
martyr
serve
sweets
paradise
stone
visitors
condolence
sweet
juice
ace
age
stoning
uprising
imprisoned
three-and-a-half
affiliation
teen-ager
influenced
devout
hardened
mistreatment
cellmates
taught
doctrine
glories
martyrdom
older
samih
sowed
freed
normal
grocery
classes
enroll
studying
koran
outward
guy
parked
someone
nothing
vehicles
buddy
tahayneh
leg
amputated
type
exploded
marketplace
raided
interrogated
grim
puzzle
oldest
hardware
shop
ate
charity
nervous
maybe
bomber
teen
calm
splashed
pages
image
displayed
undertake
straits
harm
detainees
interrogation
veered
alternative
newspapers
photos
peering
pictures
downloading
oversees
high-profile
experienced
feed
syed
book
six-month
deprived
sleep
slapped
governance
lim
kit
beatings
suggests
acted
corrupt
additional
designated
azizah
ismail
headquarters
cnbc
injected
hiv
virus
prove
homosexuality
sedition
harassment
officers
arranged
answer
programming
chris
beat
seeped
nose
prompt
expressions
disapproval
australian
mistreating
prisoners
regretted
expresses
behavior
disagreement
choosy
religious
preoccupied
deeds
mosque
kedah
sufficient
acceptable
heirs-apparent
resigned
challenged
mounted
toppling
dominant
ways
true
contest
gain
voice
state-controlled
views
check
posted
provider
medium
underdog
cyberspace
dog
cruelty
insanity
recordings
onto
websites
hatched
hottest
images
rounds
versions
inflicted
contain
speeches
letters
clippings
prose
rein
website
blocked
censored
bragged
offshore
journalist
runs
surprised
membership
soared
cyber
middle-class
leery
reading
skewed
chan
lawyer
upgraded
high-speed
modem
uses
download
bulletproof
jackets
busting
bundling
occasionally
e-mail
independence
advertised
e-mails
switch
lights
sadness
darkness
injustice
opponent
indefinite
unjustly
sacked
escaping
viewed
trumped
spurned
courthouse
please
isa
participating
sidek
baba
rector
solid
absence
event
resign
dies
succession
underwent
frighten
frankly
orchestrated
appearances
asean
skipping
laos
myanmar
discounts
plays
notable
bold
physical
transformation
forefront
doctor
fostered
liberalization
fastest
embrace
indians
pride
triumph
paving
inauguration
projects
sportsmen
dizzying
turnaround
teetering
edge
shaken
entirely
avoidable
cat
aroused
condemnation
friends
stable
prosperous
uproar
pressures
spawned
simmering
discontent
foreseen
eruption
indonesians
rarely
puzzled
disturbed
encountered
cannon
write
scenarios
totally
uncharted
waters
flailing
watches
legacy
crumble
headed
contraction
frustrated
embraced
fueled
rapid
blames
jolt
tune
round
orthodoxy
fundamental
beliefs
capitalism
theory
rewritten
reconfirmed
gamble
tenure
grooming
incommunicado
jailers
counts
34
unleashed
surge
largely
constituencies
democrats
professionals
decades
demonstrated
mosques
emergence
downward
spiral
suppression
breeds
venture
guess
lack
ride
proceeds
harsh
blow
slogan
depth
disturbing
despicable
senile
insane
accepted
mixture
gratitude
emerging
seem
stunned
spurs
holbrooke
gravity
meets
yugoslav
slobodan
milosevic
nato
javier
solana
wesley
k.
clark
level
abated
resumption
belgrade
yugoslavia
assesses
extremely
lull
ratcheting
inevitable
decisive
generals
belated
armored
pulled
en
igor
ivanov
sergeyev
milan
milutinovic
russians
occur
improvement
vladimir
rakhmanin
itar-tass
hostilities
withdraw
urgent
ensure
berlin
dieter
stoeckmann
depend
kofi
annan
serb
installing
interim
rebellious
routed
separatist
february
275,000
solved
peacefully
europeans
oppose
destabilize
balkan
populations
pristina
kla
jakup
krasniqi
bujku
agreeing
serbs
provincial
mine
albanians
guerrillas
southwest
participation
composed
turks
momentum
revelations
massacres
forests
peacekeeping
deny
hubert
vedrine
counterpart
robin
conversation
atrocities
york-based
gross
threatens
airstrike
fails
warn
systematic
assessment
compliance
judgement
imminent
momir
bulatovic
option
mobilization
military-aged
54-nation
restored
removed
barracks
montenegro
bound
pro-western
milo
djukanovic
unambiguous
resolutions
boris
yeltsin
undemocratic
alliance
million-strong
self-rule
sees
dangers
11th-hour
denouncing
favored
balkans
ambassador-designate
arriving
conferred
boarding
finalize
raids
separatists
bosnian
verifiable
tangible
irreversible
joe
lockhart
opposed
moscow
longtime
deter
unleash
cease-fire
anticipated
decried
appalling
bulk
determine
outnumber
unwillingness
james
foley
briefing
arrange
meaningful
dialogue
southeastern
comprised
smaller
introduce
drops
redeployment
brigade
enormous
tens
hills
11th
hour
punishing
scourge
bosnia
intervention
stepped
unusually
high-level
bowed
nick
accomplished
fierce
segments
brigades
observer
elements
helping
capitals
burning
looked
enjoyed
three-month
license
overwhelm
rural
supports
250,000
gearing
winter
principal
keeping
chafed
repression
virtual
conflicts
essence
three-year
fairly
flared
suit
pushing
submission
impunity
cleaned
clock
morton
analysis
advantage
indecision
tank
bedrock
effective
swaths
managed
requirement
spill
macedonia
fragile
volatile
engulf
specter
secured
catered
mined
borders
ensuring
limiting
understood
unsure
chiefs
emigres
persuaded
rugova
encounter
photo
procedural
recommended
lifting
forcing
reverse
self-styled
contact
patrol
roadblocks
sounds
precise
likovac
gornje
obrinje
limits
mines
massacre
elderly
26
fields
mortar
shells
vast
hostages
fred
focused
watershed
drenica
83
personnel
carriers
four-hour
rolling
sadako
ogata
insist
enhancing
stature
offense
pull
insure
reluctant
sternest
juncture
aggression
outlined
words
cast
ominous
constituted
skirmishes
stress
expectation
walk
underscore
explicit
ultimatum
centered
create
conducive
atmosphere
christopher
hill
broad
withdrew
nationalism
noticeably
absent
signified
valleys
checkpoints
relaxed
sealed
patrols
sporadic
superficial
enacted
trend
interior
dismantled
tells
harvest
4.5
2.8
ngongi
prospects
harvests
drought
chronic
shortages
heavily
reliant
fertilizer
lacking
tractors
machinery
planting
harvesting
counties
wfp
171
aged
notably
inspecting
weak
consuming
low
severely
malnourished
toured
hardest-hit
regions
famine
4
koreans
n.
korean
cuts
founder
native
501
chung
hyundai
seoul
force-fed
indigestible
strips
lumps
rope
shipping
unification
ranch
animals
shipment
authorize
kang
misunderstanding
cleared
stumbling
donation
sightseeing
tours
scenic
matters
four-day
diamond
distrust
koreas
deep
separated
capitalist
1945
fought
1950s
intentionally
poisoned
sabotaging
tourism
hinder
asylum
hunger-stricken
kim
naming
defectors
athlete
background
defected
60
divided
arrives
flees
60th
defects
entering
curable
illnesses
cross
complacency
hostility
stretches
willingness
far-reaching
changes
ruined
routine
undersecretary
supplied
pyongyang
looking
swollen
hunger
generation
stunted
everywhere
bakeries
noodles
cakes
soybeans
mixed
grass
herbs
astrid
heiberg
likened
knowing
moaning
farming
loss
soviet
bloc
lacks
inspectors
cabbage
vegetable
estimates
begins
statistics
malnutrition
tuberculosis
patients
recover
worry
clothes
4th
illness
weakness
diseases
fatal
tb
droughts
coupled
crop
import
survey
acutely
weight
height
reflects
ongoing
exceeded
india
sri
lanka
eighteen
measured
1,800
infants
cover
technically
unicef
findings
toddlers
permanently
intellectual
judy
cheng-hopkins
boys
twice
girls
stunt
317
chang
ung
209
compete
medals
judo
soccer
wrestling
table
tennis
weightlifting
boxing
chosun
naewoe
sydney
olympics
hiroshima
nagano
specializes
rely
starving
sends
raging
jilin
endure
reclusive
repatriate
resettled
gangs
engaged
prostitution
disregarded
yonhap
150
petitions
harvested
settlers
repatriates
near-total
mentally
impaired
scientific
nutritional
confirms
gained
increasing
secretive
shocking
researchers
62
stages
brain
mental
abilities
separately
effects
compounded
purification
idle
ingredients
chlorine
absorb
grudgingly
granted
increasingly
picture
haas
emerged
surveys
observations
assessments
magnitude
flawed
cannibalism
descriptions
surfaced
lurid
equally
withering
colds
lethal
facts
judith
cope
totality
gauge
fall
crews
scientists
permitted
random
symptom
thirty
moderate
dramatically
improves
degree
katona-apte
developed
otherwise
limited
capacities
likewise
hospitals
clinics
suitable
consumption
sten
swedlund
drink
shape
relevant
prematurely
perished
immune
pneumonia
ordinary
bout
proves
clues
hand-picked
parent
urban
finding
acute
underweight
underfed
puts
understates
pockets
poverty
alternate
plenty
war-torn
sobering
studied
donations
remarked
kindergartens
siblings
elementary
nutrition
biscuits
neglected
weaker
readily
child
looks
expert
shocked
kindergarten
obviously
thin
patchy
hair
rehabilitation
recommend
diagnose
treat
supplements
glass
replace
broken
windows
colder
coal
nonexistent
pumps
3.5
options
resorted
eating
substitute
mix
plants
potatoes
combined
constitutes
intake
basket
partly
hungry
fills
childhood
patterns
supplier
mountainous
arable
importer
grips
structural
ms.
rigid
loosening
collaborates
responsive
steadily
follow-up
inspections
unannounced
select
observed
scenes
occurring
frequently
foreigners
markedly
surmised
harbor
excluded
reasons
admiral
swedish
navy
standpoint
map
describing
installations
leveled
repeat
analyzing
scarred
federation
crescent
societies
mobilize
organizers
preparations
santiparb
tejavanija
organizing
muang
thani
estate
owns
finishing
dec.
6-20
bhichai
rattakul
chairs
shifting
project
scrapped
plagued
interference
incompetence
developer
ability
version
attract
facilities
jury
committees
competing
setbacks
olympic
constructing
tour
reassuring
muttaleb
al-ahmad
kuwait-based
welcoming
success
hereby
13th
resulting
resiliency
manuel
impressed
tu
infamous
jams
overlooked
kenji
ono
stadium
flyover
contingency
anticipate
venue
electrical
readiness
beggars
spectators
hardship
immigration
gangsters
dec
abrupt
withdrawal
scrambling
schedules
mulling
strained
jewel
theft
reconsider
withdrawing
looming
centenary
arose
strain
janitor
stole
precious
palace
jewels
fakes
saudis
loot
tensions
aggravated
murdered
retaliation
barred
visas
unsolved
normalized
cases
kobsak
understandable
pulls
fasting
murders
regret
suggestions
last-minute
withdrawals
draws
handball
pullout
coverage
schedule
expenses
accommodation
brawl
erupted
friendly
match
qatar
scoreless
punched
surely
melee
reputation
incident
forgiveness
thais
horses
iran
equestrian
requirements
veterinary
certificates
disease-free
siraya
competitors
regulations
screened
sorry
iranian
ignorance
beautiful
horse
standby
iranians
borrow
couple
competition
adjusting
faster
cold
vet
tests
trained
unexpectedly
faisal
fahd
symbolic
al-fahd
sabah
kuwaiti
royal
hosts
skeptical
decade-old
nationals
involve
hierarchy
convince
thanajaro
disarray
snooker
flareup
tempers
wars
1947
referee
yashin
merchant
foul
frame
defeated
mohammad
saleh
strict
etiquette
spilled
cue
touched
hitting
refusing
indian
arena
disgusted
breach
neckties
pakistani
shahnawaz
drama
intervene
allocated
lodged
tournament
fee
debut
elated
greeting
vying
billiards
preliminary
brightest
singh
greatly
migrated
highlights
flare
india-pakistan
flare-up
bounds
offers
viagra
notorious
pakistanis
drug
ideas
mandatory
bedtime
lankan
brigadier
track
discipline
homework
titillating
taxi
magazines
messengers
advertise
massage
parlors
escort
albums
arouse
female
range
300,000
pharmacies
prescription
cardiologist
psychiatrist
dose
attraction
15,000
mander
contingent
silly
p.m.
opted
trust
oh
yousef
baig
kids
impression
li
furong
lankans
finish
bandaratillaka
accompany
stressing
lurking
corner
traditional
parlor
art
sub-committee
performance
skilled
masseur
cure
muscular
fatigue
wear
baggy
hurdle
disciplined
rites
flares
symbolizing
dawn
cauldron
lighting
respite
continent
olympic-style
bhumibol
adulyadej
upstaged
naoko
takahashi
marathon
medal
ceremony
preceded
festivities
6,000
41
specialities
proclamation
pigeon
anointed
plaque
songs
talented
jazz
composer
symphony
orchestra
knees
samaranch
fireworks
dancers
seat
flag
bearer
bright
costumes
delighted
acrobatic
maneuvers
beauty
queen
parade
atop
lit
touching
torch
temple
lifted
elevator
sparks
flame
statue
elephant
mascot
30-year-old
piping
engineer
ceremonies
ticket
thousand
milled
flags
glimpse
screen
bomb-sniffing
pinch
proving
pageantry
relay
belief
lucky
ninth
dynasty
three-hour
performers
lavishly
theme
friendship
frontiers
ancient
garb
paraded
chariots
martial
arts
display
celebrated
students
dressed
colorful
outfits
introduced
epic
mythology
literature
performing
swirl
snakes
swans
birds
angels
mystical
creatures
capped
floats
balloon
moon
lotus
burst
overhead
lasers
anthem
budget
remedy
overcoming
warming
comedian
throwing
holiday
upstages
elaborate
hauled
campaigner
qin
yongmin
run-in
legally
register
hubei
wuhan
bureau
hastily
scrawled
bottom
persisted
covenant
observe
unswervingly
ink
landing
ratified
attach
nullifying
principles
centers
kong-based
shi
binhai
compiled
fang
jue
gao
yu
liu
xiaobo
jingsheng
profession
eve
detains
protestor
activist
organizer
fighter
monitor
cease
henan
jun
founded
officially
rampant
gripe
graft
sichuan
application
branch
signaling
intact
contacts
exiled
harming
colleague
zha
jianguo
underscoring
xu
wenli
reactionary
five-month
establish
monopoly
overthrow
wang
youcai
organize
port
tianjin
punishable
pledged
exiles
190
treaties
deceiving
cheating
suppressing
persecuting
deplored
forms
assure
mr
p.
rubin
conveyed
chen
xiao
xintong
pair
towering
persecuted
activism
dates
seminal
tiananmen
solitary
confinement
20-year
experience
campaigning
parole
nascent
deplores
detentions
endangering
clearest
quash
zhu
specify
harshest
sharpest
breached
twice-weekly
hangzhou
notified
closer
harassed
1949
condemning
17th
contradiction
codes
view
exercising
instruments
direction
exact
nature
fanfare
announcing
fasts
haul
subvert
sentences
section
threatening
hampers
overthrowing
designed
stems
loose
submitting
forbid
tame
ms
signals
usual
brings
suppressed
colluding
incite
subversion
fledgling
promoters
45
55
subversive
crushed
advocates
alternatives
re-arrested
hu
jiangxia
handed
manifesto
establishing
despotism
detailing
shanghai
yao
zhenxian
april
interpreter
kennedy
44
younger
trumped-up
publishing
pornography
sympathizers
expanded
visa
scared
terrible
shuttered
surgeon
beatrice
laroche
liaison
vocal
brothers
prominence
predecessors
ny
defendant
promoted
non-communist
qinguo
76
postponement
ignored
frail
elder
tactics
stroke
funeral
hundred
hopeful
looser
adherents
veteran
promoter
prevented
defendants
inability
overturn
intimidated
mount
responding
prospective
stayed
deterred
observing
disavowed
speaker
newt
gingrich
carville
strategist
defender
forth
muzzled
customary
denunciations
republicans
sufficiently
frustration
dnc
strategy
sounding
activated
bouncing
walls
rep.
dick
gephardt
erskine
bowles
vitriol
overly
partisan
marginal
districts
timid
quieted
waste
breath
ridicule
describe
shared
ignores
persists
approaches
continues
denounces
gop
tries
millennial
rough
outlines
boundaries
voters
crushing
disappointment
unexpected
elixir
astonishing
victories
surprises
reversals
guidelines
furiously
successfully
ten
balloting
loyalists
fewer
224
spectrum
moderates
gubernatorial
race
gov
gray
davis
cautious
pragmatist
smashing
returns
nomination
ultimately
complicated
nominating
referendum
ballot
violates
proposition
poll
chosen
caucus
nightmare
republican
right-wingers
dan
governor
lauch
re-election
carolina
neumann
wisconsin
russell
feingold
ellen
maryland
prevail
unpopular
parris
glendening
conservatives
basics
conceded
sober
thinking
67
cent
approval
tom
ridge
pennsylvania
weekly
vice-presidential
nominee
mccain
arizona
tends
steer
divisive
lessons
debacle
wake-up
electoral
butter
utility
pitching
tent
indifferent
turnout
groundless
indispensable
considerable
hard-pressed
hispanic
voting
exit
precinct
analyses
pete
wilson
anti-immigration
vengeance
barbara
boxer
trailing
78
bush
jeb
w.
texas
campaigns
espoused
causes
draw
democrat
second-largest
fourth-largest
uttered
rallying
compassionate
erase
gender
gap
voices
differently
broadcaster
fared
poorly
trent
lott
mississippi
caved
abortion
desecration
explicitly
millionaire
publisher
forbes
probable
candidate
emerge
extensive
teachers
pressing
governorships
alabama
odds
emphasizing
lotteries
iowa
1969
dilapidated
overriding
importance
backers
survived
races
underlined
challenger
doom
candidacies
lamar
tennessee
indecisive
pollsters
disliked
misdeeds
kansas
nebraska
censure
milder
hearings
equivalent
nevertheless
judiciary
constitutional
barr
georgia
foe
mary
bono
muted
drag
1998
minorities
resurgence
mid-term
tore
off-year
soul-searching
recriminations
midterm
months-long
assuming
oregon
holds
amounted
smallest
republican-controlled
1953
controlled
captured
henry
hyde
panel
starr
thanksgiving
marietta
ga.
row
furious
rank
burned
chambers
males
scarborough
accomplishments
shays
connecticut
vindication
addressed
e
proceed
slim
expeditious
manner
robert
torricelli
aisle
rick
lazio
wrapped
consensus
factions
tortuous
balancing
unite
hard-core
faction
arithmetic
ad
hoc
majorities
strengthened
strident
ranging
seeming
uncharacteristically
accounting
judgment
recoil
amplified
drown
underestimated
sick
sort
disgusting
sheer
repetition
aggressively
cutting
saving
winning
reforming
admitted
mistakes
scramble
hurt
listen
emphasis
tax-cutting
shoring
rank-and-file
assess
steered
staffer
tinderbox
distance
roof
recognizes
terribly
blitz
foiling
disgruntled
long-shot
mid-november
dissatisfaction
ideological
utah
second-in-command
armey
envisioning
livingston
appropriations
louisiana
largent
oklahoma
speakership
mid-level
mcconnell
kentucky
defeat
overhaul
chuck
hagel
lambasted
squandered
historic
incumbents
coasted
vince
redmond
jon
fox
jersey
jay
wu
absentee
ballots
counted
self-proclaimed
revolutionaries
newly
ranks
sons
udall
colorado
morris
stewart
congressman
o
qualms
underway
pause
ousting
band
re-elect
knots
throw
matt
salmon
fury
boiled
net
messy
contradicted
containing
amounts
pork
wins
elect
chaotic
prospect
displeasure
phones
intentions
ducks
loyal
retain
encouragement
salve
loses
bet
millennium
welfare
values
rearranged
ronald
presidency
shaky
maintains
marginalization
profound
working-class
bias
blacks
deficits
habits
undisciplined
prosperity
gaps
talent
formula
instincts
balanced
uniforms
symbolized
parental
intrusion
contempt
well-known
flaws
mainly
diverted
flood
tide
successes
minimal
unfettered
enterprise
christian
aging
boomers
budgetary
fortunes
overestimated
realized
blunt
literally
catholics
fold
wedge
latinos
resemble
republicanism
dwight
pro-business
inherent
distaste
inclusion
peddling
wilderness
accustomed
mood
moderation
drift
forge
worker
pan
overseeing
swiftly
catching
altogether
purge
poison
listened
stunning
reversal
combative
confrontational
jim
wright
commercials
reminding
evident
downfall
revolutionary
zeal
harnessed
tumultuous
cannibals
blackmailed
quitting
r-n.y.
marginalized
clips
blaming
handful
`they
hateful
l.
archer
chairmen
unified
reconcile
resigning
marianne
knack
negative
recalled
suggestion
shutdown
miffed
sit
notes
bitterness
amongst
worthy
adversary
joining
21st
appreciate
portray
visionary
sherwood
boehlert
appreciation
nominate
govern
rifts
biting
missouri
succeeds
repairing
wrought
institution
wide-ranging
hectic
pretenders
shortage
slot
blackmail
succeed
resigns
microsoft
electronic
videotaped
shrug
competitive
punctuated
exclamation
cross-examination
deposition
gates
apple
inc.
tape
suing
alleges
stifle
software
videotape
boies
credibility
taped
anti-competitive
bullying
professes
machinations
summon
memoranda
stephen
context
warden
thomas
penfield
skepticism
crazy
quilt
fragments
counterattack
culled
subpoena
pretrial
ritual
pose
declaration
interrogations
refrains
exactly
prevailed
predatory
monopolist
superior
prod
online
partnership
netscape
respective
strengths
marc
andreessen
cofounder
beast
communication
typewriters
documentation
electric
fax
machines
computers
add
inquiries
iran-contra
oliver
high-technology
supplanted
instrument
revolutionized
3,000
exhibits
informally
tap
punch
button
documentary
sharp
contrast
oral
coached
selective
harder
litan
brookings
pointing
contradictions
divide
browser
subordinates
piece
axinn
litigator
&
amp
reveals
anti-trust
volume
commerce
aol
subscribers
ambitious
brand
enlarge
wired
absorbing
regularly
netcenter
acquiring
enhance
f.
moore
geopartners
consulting
assembling
mainstream
translate
advertising
marketers
rendered
inherently
two-way
interact
click
mouse
interaction
advertisers
exploiting
instant
optimism
selling
books
progressed
experimentation
stories
amazon.com
on-line
bookstore
2003
forrester
trends
3.2
trillion
convergence
integration
reflected
lineage
pepsico
pizza
hut
chain
pittman
mtv
msn
competes
sidewalk
seattle
msnbc
formidable
competitor
desktop
valuable
owning
offerings
head-on
pioneer
navigate
dominance
pursued
generates
distributes
sale
technological
processing
transactions
element
a.
cusumano
sloan
screens
microsystems
transaction
considerably
marketing
sizeable
sell
longer-term
j.
raduchel
harvard
scott
java
combining
prowess
grip
computing
laboratories
stripped-down
appliance
subscription
shun
expense
receiver
residing
users
tapping
buttons
specialty
centralized
three-to-five
expand
domination
acquisition
undermined
demonstrates
healthy
vibrant
practices
obstacles
lacovara
frederick
warren-boulton
explorer
default
advertisement
98
merger
combination
extent
exclusive
unfortunate
disappearance
newest
purpose
operating-system
foundation
forbids
overwhelming
ephemeral
toppled
encourages
placing
principally
fringe
co.
imac
machine
undermine
mergers
giants
transform
mall
rests
importantly
partner
developing
heavyweight
specially
retail
manufactures
microprocessor
chips
costing
cellular
comparatively
elitist
households
merchandise
accelerate
timetable
ubiquitous
devices
boxes
m.
accurate
long-range
programmers
calif.
silicon
headhunters
asset
hackers
catering
newcomers
derisively
incentives
tailored
board
component
bigger
supercomputing
palo
alto
opportunities
environment
populated
on-ramp
technologically
evolving
va.
dependent
cross-hairs
relied
handle
bundled
industry-standard
pattern
anticompetitive
laying
stabilized
2.7
162
all-in-one
portal
novice
diverse
fit
editorial
rapidly
landscape
fast-moving
technical
vigorously
pursue
muscle
risen
scarcely
mentions
bugs
derided
rocketed
smother
chances
corridors
bludgeoned
dissolution
distress
customers
placement
icon
hence
cables
fairness
requires
innovate
vigorous
pursuit
potent
chatty
teen-agers
flirt
adults
mail
checking
hearts
minds
suits
complexity
ambitions
wider
array
merchants
realize
e-commerce
space
offering
end-to-end
graphic
design
2002
enable
gere
fragmented
ibm
sophisticated
andersen
spin-off
arthur
pricewaterhousecoopers
umbrella
typically
organic
basically
firms
u
s
viant
emphasized
strains
exemplified
bazaar
combine
subscriber
engineering
barry
schuler
interactive
servers
tools
advantages
quest
consistency
follow-through
chatham
unit
vendor
tangle
menage
providers
shown
customized
clients
efficiently
relationships
wanting
footage
rewriting
universally
broader
incorporated
high-end
hurting
sorts
connecting
existing
inventory
creative
customer
promotional
operational
maintaining
connect
payments
back-office
device
gett
tainted
expanding
custom
lucrative
full-fledged
`who
stream
tiniest
tip
iceberg
marks
large-scale
broaden
selloff
dow
industrials
tumbling
straight
jones
indicators
sank
stocks
worries
shrinking
profits
crises
1,700
all-time
best-known
indicator
comeback
slide
quarterly
prices
tokyo
shares
falling
1.6
12-year
unchanged
blue
lows
index
frankfurt
5.5
haven
uncertainty
yields
30-year
bonds
levels
unseen
1967
alarmed
nosedive
lowered
one-quarter
percentage
deeper
go-slow
smaller-than-expected
lowering
samsung
affecting
ours
michel
camdessus
fed
offset
negatively
erupt
slowdown
omen
psychological
overall
sony
tdk
earnings
ing
baring
ltd.
medium-sized
countering
prohibit
believing
curtain
violation
everyday
dmitry
yevgeny
primakov
installment
loan
viktor
gerashchenko
mikhail
zadornov
flew
4.3
boosting
printing
rubles
vadim
fourth-quarter
kommersant
deficit
soviet-style
yuri
maslyukov
leaked
mad
collection
pochinok
totaled
oil
warns
leonid
kuchma
corrections
ukraine
ukrainian
recommendations
interfax
decree
2.2
yushchenko
consultations
hryvna
valery
pustovoitenko
stabilize
expectations
ukrainians
stocking
clothing
household
fast-devaluing
woes
privatizing
privatization
effectiveness
renewal
serves
reassured
circulation
correspond
regulate
influx
drain
stashed
2.5
minimize
continuous
liking
yours
spell
crashed
defaulted
reaffirms
reassure
deliberations
provoke
anxious
kremlin
item
maker
surprisingly
reconstruction
wages
pensions
wage
inflation
ruble
implies
exchanges
stipulates
authorization
exporters
allusion
obvious
otto
commentator
yegor
gaidar
favors
imports
grew
rumors
inflow
asserting
depressing
wrangle
disbursement
modified
maneuvering
thrust
regulation
expansion
similarities
advisers
fyodorov
logic
implying
draconian
mum
bankers
nervously
congratulated
nasty
brush
hallway
replay
bump
enjoying
twelve
limousines
glide
endless
receptions
meltdown
plunging
predictions
mutual
breaking
culprits
crony
capitalists
reckless
abandon
panicked
prevails
billions
continents
safest
havens
anytime
seminar
conclave
painfully
fifty-three
bretton
woods
tone-deaf
jakarta
contagion
unaware
arrogant
schultz
suspicious
scrapping
architecture
wildfires
globe
edged
wresting
tumbled
groping
solutions
diagnoses
disclosure
american-style
pressed
unwise
rebuilding
tables
`we
awkward
ph.d.
unaccustomed
born
rhodesia
zambia
well-deserved
convenient
pin
steaming
slipped
tick
longest-serving
worlds
detonated
algeria
dismantle
airplane
monopolies
`i
symbolize
twin
stabilization
costs
fulfilling
javanese
historically
gravitated
dissolved
lined
staples
subsidies
price
artificially
devaluation
jobs
unintentionally
sped
salvation
rioting
stabilizing
preventing
freeing
blind
toughest
alleviating
tension
lengths
tripling
poorest
globalization
alike
riches
changing
exacting
4.8
wasted
leeway
periods
flexibility
pawn
runaway
failings
devaluations
defaults
lawrence
summers
unconvinced
overwhelmingly
contribution
contributions
restoring
contrary
lap
ventures
nod
master
weighs
extract
mit
faculty
graduate
instrumental
constantly
remember
outsiders
academic
coax
mindful
backlash
bailed
disclose
dissension
budgets
propose
exclude
undercut
orange
rankled
cheerleading
commentators
examples
muscles
turf
christmas
debts
bother
lipton
shadow
displeased
raced
enact
germans
conclusion
devalued
last-ditch
prop
resisted
hesitant
scarce
championed
propping
reversed
devalue
reformer
suspension
owed
roughshod
rebelled
calculated
vastly
triggering
rescued
powerhouses
invested
goldman
sachs
intercede
bleak
perceptions
starve
polite
forecasts
failures
crashing
rotating
tolstoy
chekhov
regards
love
stuffed
parcels
railway
bills
airports
accepting
sherekhov
sue
soap
toilet
monumental
recess
arctic
disrepair
nickname
granny
wheels
volga
sedans
shed
postal
pipeline
sweepstakes
notices
fervently
remote
mails
needy
vital
mail-order
catalog
items
rumbled
continually
railroads
freight
specified
categories
psychology
socialist
tatiana
pashkova
spokeswoman
exists
kidding
outstripping
moreover
pension
checks
motive
thriving
railways
cash
meantime
boil
fleet
trucks
rail
clogged
unloading
39
grinds
unpaid
confusion
anti-western
comprehensive
deeply
abate
praising
cooperate
defiance
assume
census
reformers
rumored
communists
marchers
demonstrating
undergone
backfire
gennadi
zyuganov
headlines
ruin
slogans
old-style
pro-communist
devoted
page
readers
entries
ranged
legislator
banker
exam
imperialist
exported
despair
travails
ugly
editor
newsweekly
lipman
mandate
dissolve
autumn
legislative
interpret
all-russian
barely
one-tenth
wave
scapegoat
sins
enthusiasm
fifth
subsequent
unions
sponsor
resorting
erupts
tepid
deep-seated
feeling
dampened
marches
syria
turkey
exercises
hands-off
escalating
ankara
instructed
amassed
turkish-syrian
egyptian
hosni
mubarak
hafez
assad
defuse
two-hour
amr
moussa
departure
solving
egypt
farouq
al-sharaa
graveness
diplomatically
massed
eradicate
kurdish
turkish
jets
buzzed
frontier
riyadh
mediation
exert
consulted
suleyman
demirel
yakis
sheltering
1984
kurds
alliances
dams
euphrates
editorials
restraint
baghdad
babil
incursion
buildup
gazette
syrians
understandably
manipulated
new-found
pounce
warlike
shuttle
autonomy-seeking
cross-border
diplomacy
patience
goodwill
milliyet
speculated
pinpoint
syrian-controlled
bekaa
lebanon
ismet
sezgin
37,000
fruitful
cautioned
fueling
disagreements
sizable
renews
pleads
deepening
envoys
tehran
harboring
kamal
farouk
emissaries
closest
escalated
violating
airspace
neighbor
allegation
cool
rising
elias
hrawi
rafik
hariri
ocalan
pkk
lebanese
bweiz
{
an-nahar
product
forged
inflaming
brilliant
versus
absolute
folly
talal
salman
as-safir
maxi
sayonara
honors
hobart
yacht
ellison
nautical
bluewater
beats
endeavour
1992
glory
seconds
winner
brindabella
handicap
sixth
double
barrier
knock
captain
snow
crew
tipped
showers
thunder
southerly
swinging
tasmania
bass
strait
sydney-to-hobart
bermuda
favorite
sydney-hobart
crewman
overboard
maritime
amsa
seas
smash
remnants
115-boat
night-vision
heat-seeking
frigate
hmas
newcastle
sword
orion
rolled
crewmen
halfway
towards
ansa
atrocious
gusting
rescues
yachtsman
victorian
kingurra
gabo
campbell
hypothermia
winched
constable
barclay
infra-red
dismasted
fingers
yachts
retire
630-nautical-mile
sail
contestants
115
sailor
gale-force
40-foot
vessel
naiad
wales
merimbula
coordination
aussar
canberra
b-52
mid-morning
eden
sailing
unassisted
winston
churchill
deck
overturned
solo
sailors
swelling
searched
washed
supposition
quinn
1-2
swells
instructions
skipper
retires
1,160-kilometer
725-mile
batters
deceased
tragedy
owner-skipper
bruce
first-time
participant
phil
skeggs
occasions
drowned
harness
sailed
cutter
glyn
charles
cups
facial
yesterday
swerpt
definitely
swam
threw
hoisted
fifteen
fatality
nightfall
poke
superman
entrants
liferaft
dark
plucked
australians
dad
beer
raft
damned
capsized
frightening
underneath
canopy
upside
yahoo
gale
nsw
snapped
mast
brit
astronauts
boarded
liftoff
nasa
cabana
amen
controller
cloudy
skies
cockpit
behave
countdown
orbit
contains
flashed
controllers
traced
momentary
hydraulic
cutoff
frustrating
corners
shaving
crawled
thumb
finger
trigger
engineers
examining
one-day
overtime
american-made
passageway
robot
spacewalkers
hook
cylinders
handrails
clouds
spare
dignitaries
drizzle
ok
russian-made
zarya
module
chamber
stacking
240
nancy
currie
crane
operator
deftly
repositioned
77
70,000
pounds
crewmates
computerized
camera
docking
tasks
castle
sunrise
rocket
pilots
thrusters
junk
orbiting
debris
comfort
coupling
50-foot
assigned
44,000-pound
propulsion
kazakhstan
steering
permanent
36-foot
25,000-pound
vestibule
modules
spacewalking
manually
connectors
components
spacewalks
12-day
launches
159
16-nation
endeavor
closes
spacewalk
seven-story
tower
russian-built
made-in-america
hopefully
long-lasting
congratulations
terrific
240-mile-high
positioned
solar-winged
alignment
thereby
snap
historical
15-year
lifetime
strayed
handled
41-foot
kazakstan
antennas
undeployed
manual
battery
install
mated
mir
12-year-old
transfer
outpost
randy
brinkley
contractor
orbital
two-and-a-half
orbits
shifts
unfavorable
angles
solar-powered
mutually
prudent
justified
frank
candid
conclusions
newer
motives
wondering
decommissioning
funding
salvaging
five-year
u.s.-built
attaches
affects
positioning
nearer
3:36
spaceship
craft
uncommon
frowns
warranted
ralph
roe
smoothly
nighttime
alight
window
rendezvous
engines
rudder
surfaces
insignificant
aborted
blastoff
roar
ascent
coastline
locate
grasp
wielding
methodically
pyramids
require
walks
solar
arrays
interconnected
habitat
747
jetliners
batteries
extend
half-mile
entails
unforgiving
clinched
post-cold
appetite
consume
financing
credible
taxpayers
laboratory
weightlessness
physiology
mysteries
humans
someday
adapt
praise
spaceport
lauded
fantastic
hub
hoist
payload
vertical
financed
tugboat
embryonic
furnishing
colonel
mishandled
crush
marine
corps
nudge
tips
builders
ross
newman
42
physicist
busy
tunnel
portable
1999
pilot
sergei
separating
shy
gretchen
mcclain
soft
numerous
apiece
flawless
intricate
snared
chasing
grab
cylinder
marines
deploy
indications
assist
spacecraft
aligned
allowing
clamp
measuring
weigh
span
size
shuttles
construct
mating
covers
perform
fixtures
cameras
examined
markings
laptop
practiced
maneuver
cape
canaveral
fla.
trackers
booster
widen
separation
grabs
wim
duisenberg
adopting
euro
jan.
pace
gradual
interest-rate
3.3
euro-zone
lowest
policy-making
outlook
stubbornly
10.9
coordinated
center-left
stubborn
hint
varied
ireland
austria
comprises
six-member
directorate
facto
foreseeable
hans
tietmeyer
capitulation
oskar
lafontaine
pessimism
turbulence
ecb
modeled
bundesbank
eleven
dropping
%
danes
megaphone
polling
54
denmark
undecided
maastricht
opt-out
danish
lukewarm
2001
thoughts
0.9
decline
eurostat
netherlands
finland
increases
overheating
3.9
hops
sweden
1.4
0.6
0.5
1.1
1.3
1.8
1.9
1.7
falls
rises
completing
le
monde
proposing
jean-claude
trichet
gentleman
introduction
sidelined
continent-wide
equities
pan-european
bourse
unifying
equity
announcements
requiring
continental
deutsche
initiative
technicalities
entry
dominique
strauss-kahn
principle
arrangements
advanced
afraid
europe-wide
compatibility
awful
futures
intergovernmental
transfers
coins
pocket
travelers
concentration
heightened
consolidation
amsterdam
blue-chip
capitalization
holdout
invited
zurich
stockholm
mercantile
petroleum
coordinate
after-hours
premature
jean-marc
routiers
eurostar
underwater
loosened
silk
fluent
english
sentimental
practical
lifestyle
start-up
vanguard
languages
cosmopolitan
parents
papadopoulos
greek
efficient
athens
speaks
clubhouse
privileges
fashionable
drives
porsche
towers
co-workers
jammed
1968
convulsed
frenchman
holland
permit
unskilled
laborers
steel
shrank
'80s
waiters
maids
garbage
collectors
academics
white-collar
eagerly
zones
twenty-five
mobility
multinational
trains
apparatus
accessible
managers
entrepreneurs
swedes
masses
shoes
ads
leggy
pushes
bicycle
elysee
greet
chirac
sticks
tongue
chancellor
helmut
kohl
aldo
lowe
tv
unconscious
paradoxically
cosmopolitanism
flexible
bureaucracy
aspect
privilege
reserved
daughters
scholarship
200,000
mba
teach
creep
juergen
schrempp
daimler
mechanic
szabo
johns
hopkins
unthinkable
cultural
trappings
bosses
weighed
distinctions
smith
portuguese
lisbon
vienna
serbo-croatian
succeeded
flock
bypassing
society
birth
breeding
iliffe
mrs.
hungarian
canadian
prevailing
pregnant
maternity
philippe
haspeslagh
48
prestigious
choosing
herself
belgian
teaches
czech
flemish
disproportionate
kicking
screaming
constituency
answering
massacred
timorese
suspending
u.n.-sponsored
timor
antara
spiritual
roman
bishop
belo
dili
nobel
fights
unilaterally
sincerity
deployment
brutality
horacio
cesar
noisy
abilio
soares
occupying
izildo
pereira
baucau
invaded
annexed
halts
negligence
ramos-horta
stranded
indonesian-controlled
formerly
antagonizing
persona
non
grata
roy
accentuated
catch
intervened
conflicting
stuck
visa-free
progressive
shui-bian
re-elected
taipei
dpp
qualified
chiu
laureate
e.
supporter
commando
ot
queensland
brisbane
invasion
jason
mcleod
battalion
commandos
leaflets
remind
annexation
decry
landmark
occupied
definitive
consultation
year-end
jaime
gama
opt
half-island
troop
xanana
gusmao
grant
cheers
runway
marker
hasty
signaled
blueprint
displaying
newfound
taste
distant
tomorrow
interviewed
suite
sections
resumed
embark
unleashing
resentment
pummeled
definition
transitional
derail
voiced
800,000
fence
automatic
rifles
vain
pro-independence
secretly
spite
rotations
batch
roll
academy
announces
animated
authors
winners
ian
literary
awarded
1901
shines
wonderful
v.s
naipaul
pessimistic
scathing
portrayals
post-colonial
nominated
alfred
awards
posthumously
afar
harold
bloom
unsettling
nationally
'correct
concedes
outrageously
joyce
heaven
sake
marcel
proust
mccarthy
meridian
philip
roth
pastoral
ashbery
poet
foreshadow
poets
laureates
bei
dao
editor-in-chief
kyoto
novelists
pa
kin
latter
struggles
publishes
pinned
ayala
renowned
martinez
cachero
vargas
llosa
saramago
picks
awaited
nominations
hotly
scratched
piqued
chapter
mystery
drowns
smiled
obscures
clarifies
world-renowned
isaac
singer
little-known
wonders
wislawa
szymborska
arguably
honored
mediocre
heaping
obscurity
strindberg
leo
apologizing
slight
ideal
charm
poetry
samuel
beckett
writings
superimposed
curious
forensic
edges
speculate
shortlist
7.6
kronor
guessing
awarding
novelist
capricious
floating
citation
parables
imagination
compassion
irony
apprehend
elusory
novel
blimunda
iberian
breaks
supernatural
exuberant
contemporary
blindness
nameless
affliction
spreads
tale
gospel
jesus
christ
evil
crucifixion
fiction
invokes
tradition
978,000
pronounced
consecutive
queries
personality
gush
smiling
hugging
canary
industrialist
inventor
dynamite
debated
stretching
futility
vivid
iceland
halldor
bertrand
dario
fo
playwright
combines
comedy
acid
polish
professors
physics
chemistry
oslo
norway
imaginative
deserved
portuguese-language
fernando
pessoa
justify
nobels
hostess
error
vatican
atheist
upset
arrive
delight
dailies
publico
diario
noticias
posters
illiterate
part-time
terra
peasants
salazar
jubilant
perennial
also-ran
coveted
menachem
five-member
norwegian
brokering
foiled
lundestad
feb.
secrecy
overseen
endowed
355
stig
ramel
swede
selection
revealed
dilemma
memoirs
leans
vaclav
havel
50th
sharing
furchgott
louis
ignarro
ferid
murad
discoveries
concerning
nitric
oxide
molecule
cardiovascular
karolinska
pharmacologist
brooklyn
california-los
senation
pollutant
nitrogen
burns
organism.
weapon
regulator
b.
prusiner
prions
rogue
proteins
cow
pavlov
koch
dna
francis
crick
watson
baltimore
visible
aids
cormack
sir
godfrey
hounsfield
1979
computer-assisted
tomography
scan
trio
discovering
hardening
arteries
impotence
transmission
membranes
regulates
function
transmits
artherosclerosis
richly
novels
admirers
tall
balding
glasses
severity
successive
poland
seamus
heaney
magical
realism
irrational
addressing
faith
backdrop
unwavering
distinctive
ricardo
reis
siege
characters
mysteriously
andrew
miller
cynicism
clear-eyed
quality
wisdom
grateful
generous
lanzarote
participated
round-table
bouquets
roses
museum
jorge
sampaio
carvalho
solemnly
ideals
essays
brazil
critically
dreamed
publish
oppressive
discouraged
seize
anti-communist
translating
texts
memorial
text
perspective
characteristic
inquisition
baroque
heavens
powered
wills
convent
1987
irving
howe
acclaimed
echoes
enlightenment
shrewd
homage
sets
romantic
herbert
old-fashioned
lyrical
unconventional
drifting
collide
azores
gibraltar
satire
religion
intolerance
vetoed
blasphemous
apartment
whimsical
humble
insert
lunatic
edmund
derails
saga
affirming
crusaders
occupation
remark
overdue
lasting
publication
os
andre
julian
embarked
journals
pharmacologists
natural
bodily
widening
vessels
initiating
clots
57
treatments
treating
lung
toxicology
penis
erection
anesthetic
nitrous
automobile
fumes
bacteria
organism
startling
unstable
converted
nitrate
recipients
lobbied
learning
refreshingly
hewlett
pondered
culmination
incredible
gerald
valentin
cardiology
mt
sinai
prize-winning
endothelium
lining
nitroglycerine
replenish
knowledge
underlying
cells
shut
contractions
inhalation
dangerously
pulmonary
regulating
oxygen
inhaled
harmful
microbial
cancerous
induce
programmed
cancers
exploring
temperature
lungs
intestines
asthma
activate
vicinity
intestinal
tract
smell
unfolding
layer
edrf
relaxing
relaxes
smooth
optional
trim
refer
accident
experiments
rabbit
technician
correctly
wash
omitted
davidson
identical
symposium
mayo
rochester
virginia
charlottesville
stanford
abbott
fortunate
theodore
rall
gilman
southwestern
dallas
scientist
earl
sutherland
trainees
dumping
hormones
slices
tissue
cultures
refined
techniques
roles
albert
lasker
invention
twist
chest
prescribed
captures
ariel
sharon
hawkish
shake
opposes
ceding
appointed
yediot
appointment
levy
hardline
toughening
territories
mideast
haaretz
stance
biography
kfar
british-ruled
1948
junior
1956
parachute
crosses
suez
canal
invades
indirectly
sabra
beirut
shamir
likud
shimon
peres
seasoned
warrior
lists
hero
mercy
hard-liner
arabs
tribunal
tracks
tishrin
golan
betting
anti-peace
illusions
clear-cut
saeb
erekat
crown
amman
expressing
unease
far-right
worrisome
aharonot
balking
pullback
`yes
references
fulfill
fancies
unapologetic
battlefield
combat
barrel
caricature
intransigence
unrelenting
dedication
survival
vigor
impressively
pugnacious
foes
infantry
engagement
commanded
arab-israeli
active
outgunned
defying
assaults
phalangists
unarmed
shatila
libel
refuted
condoned
beforehand
mired
open-ended
militarily
renunciation
savvy
knesset
binding
fractious
coalitions
investiture
portfolios
settlements
galilee
achievement
polarizing
acerbic
rabin
internationally
demilitarized
jew
native-born
orthodox
cementing
amazing
hawk
politican
placate
ardent
quell
supposedly
infrastructures
redeploying
professed
aghast
nabil
transportation
backbone
arik
fitting
damages
fruits
hidden
constitute
judean
slopes
hebron
genuinely
uzi
hard-liners
comprise
intelligent
imagine
raanan
contribute
swearing-in
negev
highlighted
checkered
landau
relieved
rumor
undoubtedly
facilitate
appointing
shaul
19-year-old
michal
stabbed
bus
hometown
tomer
bullets
protester
stating
diminished
razor-thin
perceive
contributing
hardliner
gifts
bidding
finalist
forbidden
ioc
marriage
guests
companions
souvenirs
value
finalists
prohibited
hodler
500,000
millon
boasts
spokeman
francois
carrard
bribe
benefited
bribes
baird
pretends
contested
onus
welch
scholarships
tuition
individuals
sloc
joklik
bribed
tsukada
nippon
accounted
entertain
excessively
holder
accusation
osaka
sapporo
1972
bribing
bribery
unaccounted
whistleblower
quit
lausanne
expel
integrity
vote-buying
numbering
admiration
expelling
stripping
eliminate
federations
fifa
assign
boards
wishes
takers
declaring
sprinter
ben
expulsion
compensation
ski
tycoon
gianni
agnelli
vans
sestriere
skiing
peterson
delegate
fore
surgical
pound
apology
embarrassment
thinks
merit
bids
payne
presided
makoto
kobayashi
villains
lobbyists
mouth
1966
flurry
milestone
maturity
negotiators
touches
yellow
paint
flowers
arrivals
oversee
touring
confirming
intl
1st
check-in
shortcomings
aided
improvisation
patriotic
glorious
fawzi
painted
cairo
intervals
morocco
passengers
one-way
mirrors
rafah
allenby
crossings
autonomous
degani
closures
bar
gear
x-ray
hold-up
aviation
fayez
zeidan
adventure
counters
ashdod
nir
yarkoni
customs
12th
statehood
inaugurated
tears
outpouring
patriotism
highlight
touchdown
fokker
co-pilot
descended
chant
akbar
vip
lounge
decorated
oriental
carpets
broadly
flashing
v
collected
adel
imam
spontaneous
marching
bagpipes
circle
kissed
waved
boy
riding
mules
drums
permitting
export
shipped
gazans
gurion
tel
aviv
seaport
graceful
arches
tiles
imported
terminal
two-mile
poster
hangs
guided
van
overcrowded
ringed
barbed
wire
trapped
khaled
pilgrimage
mecca
celebrate
celebration
greets
glitches
marka
inaugurating
falcon
f-50
short-haul
u.s.-brokered
envisages
lands
director-general
jordanian
unnamed
shrines
inaugurates
palestinian-run
retains
brokered
hailed
anti-israel
reneging
short-lived
inspect
luggage
stopover
abdel
yehia
exempted
departing
tunisia
hip
embargo
brotherhood
zine
abidine
tunisian
oasis
kms
tunis
duration
itinerary
crossing
ras
bone
sanctions
surrender
libyans
lockerbie
turns
scottish
u.s.-british
dutch
injury
farrakhan
monitored
robe
cane
tripoli
u.s.-based
islam
malta
overland
nationalist
sect
self-reliance
separatism
whites
gutter
subhuman
congratulates
cites
5th
algiers
unblocking
sahara
discrepancy
algerian
extends
jerba
clearance
sensitivity
sirte
basset
al-megrahi
lamen
khalifa
fhimah
blowing
airliner
259
zeist
utrecht
dossier
jana
empowered
handing
grassroots
cropped
imprisonment
lifeblood
defied
secretariat
omar
al-muntasser
bbc
encouraged
sum
10th
budge
lasted
seriousness
answers
outstanding
extensively
emirates
complied
turnover
103
eckhard
four-wheel
roaring
al-zuwiy
supervision
restricting
accepts
handover
hamad
jassem
jaber
matching
qatari
reaffirmed
objections
fm
lament
healing
tribute
punish
hid
suitcase
echoed
century-old
almond
commemoration
congregation
sing
pray
solace
remembrance
westminster
abbey
elizabeth
candle
arlington
cemetery
syracuse
crash
radar
bert
vale
wreath
townspeople
ticking
pat
visibly
irresistible
wreath-laying
accountable
conditional
cruising
altitude
heathrow
felled
checked
baggage
vow
downing
va
kurdistan
dethroned
mortal
insurgency
headless
focusing
guerrilla-style
blessing
disguise
deputies
controlling
granting
doors
1,500
solidarity
kurd
dino
frisullo
hideout
most-wanted
bulent
ecevit
tolerance
brawls
penalty
consistently
cem
lamberto
dini
dropout
marxist-inspired
underdeveloped
presses
romania
tight
bucharest
chased
bonn
tents
inmates
istanbul
prisoner
hostage
inmate
captors
apostolos
civilization
self-determination
blatant
terrorism-related
eleftherotypia
109
greeks
streaming
evenimentul
zilei
romanian
klestil
austrian
cyprus
cypriots
urgently
walter
zehetmayr
apa
heinz
guarded
massimo
d'alema
homicide
prohibits
abolish
absentia
qualify
renounce
organizes
ministerial
pressured
exxon
mobil
merge
bloomberg
wal-mart
sunk
dutch/shell
reunite
d.
rockefeller
1911
consisted
vacuum
fiercely
lean
crude
swallow
amoco
adam
sieminski
bt
alex
raymond
lucio
noto
fairfax
personalities
far-flung
networks
refineries
overlap
reluctance
exploration
platforms
inventories
declining
exporting
oil-producing
opec
cutbacks
barrels
74
regulators
exxon-mobil
reviewing
scrutiny
garfield
aegis
advisors
refining
redundancy
rationale
bp-amoco
amy
jaffe
baker
iii
logical
complimentary
redundant
caspian
nigeria
corp
cite
patch
marriages
vogue
deal-making
acquisitions
internally
plunge
crude-oil
luring
peaks
buys
burnett
institutional
certainty
takeover
laloggia
newsletter
md.
premiums
small-cap
reckons
partially
qualifies
66
chains
emporium
smart
subsidiary
groupe
casino
supermarket
p
takeovers
recommends
presto
housewares
sheet
dividend
yield
newell
profitable
squeezed
exotic
locales
untapped
cheaper
jr.
cambridge
mass.
dynamics
excerpts
q
italics
aspects
bp
merging
conoco
fits
impediment
second-biggest
intensive
deepest
expenditures
envelope
systematically
brutally
non-opec
shrink
worthwhile
careful
surging
86
duplicate
employ
premium
circulated
arun
liquefied
tengiz
payoff
follower
behemoth
divestitures
reshape
undergoing
combinations
regulatory
challenging
surged
drilling
brisk
retailing
motors
macy
texaco
getty
depot
wholesalers
mcdonnell
douglas
shell-texaco
eleanor
shell
refinery
divest
hawaii
re-examine
deciding
terry
chevron
significantly
overlapping
poses
confronted
leuffer
stearns
ftc
gm
breakup
lubricants
petrochemicals
disagreeing
constituents
hervey
donaldson
merged
visibility
concentrations
exploratory
spark
siren
valve
mabry
artificial
gate
rub
eyes
revival
lewis
overalls
glancing
holdings
buyer
evils
moron
beaumont
brick
herrington
atomic
rang
full-time
producing
geologists
accountants
motor
notice
petrochemical
humming
livelihoods
spray
gusher
stretch
fenced
third-generation
employee
nephew
laboring
retirements
sheets
chafe
vacations
contractors
unionized
1990s
ethos
gaining
efficiency
fork
elicit
foresight
exploits
bobby
assistant
borrowed
self-service
robber
baron
era
unfolded
impeach
excruciating
extramarital
flynt
hustler
beverly
adulterous
expose
hypocrisy
indiscretions
investigative
unavailable
sprawled
listening
lying
knee
avoiding
gauntlet
shipyards
mild
exploit
first-rate
obey
sparred
nuns
st.
hell
souls
somebody
overlook
lindsey
graham
distinguished
trampled
whereas
smearing
dana
r
calif
admit
adultery
admission
raw
passions
hesitate
speaker-elect
stunningly
breathtaking
utterance
flicking
trump
heap
angst
festering
debating
verbal
ovation
undeniable
sensed
trap
defenders
marital
sheriff
noon
discarding
badge
wrested
doorman
reply
momentous
self-immolation
exhaustion
bearings
mccarthyism
jerrold
nadler
d-n.y.
salute
grueling
whip
shaking
tearing
avenue
swift
loomed
glare
beg
firmly
shouts
disbelief
somehow
bonior
refocusing
distracted
vicious
cycle
cried
reeling
frenzied
fateful
licked
yell
pressuring
stuns
confessed
driveway
boos
narrowest
decency
adulterer
distinguish
wished
insidious
removal
disillusioned
withheld
disclosures
deed
dennis
hastert
whips
reorganization
disclosing
occasion
bonnie
nearing
closed-door
stated
clue
contemplating
j.c.
watts
rogers
scripts
impeaching
anguish
r-ill.
sinners
wretched
infidelity
applause
intruding
lied
abused
drastic
d-pa.
sacrificial
lambs
stirring
farce
imperfect
unattainable
altar
morality
abyss
shocks
muster
smarter
pundits
opposite
primitive
toxic
inconceivable
commonplace
unanticipated
deepened
sweep
unstoppable
forthcoming
savage
processes
elective
considerations
well-being
verdict
times/cbs
incapacitated
escaped
conviction
comebacks
nixon
clawed
respectability
re-establish
stewardship
enlist
dole
emissary
plausible
plainly
stained
spot
glowing
impresario
moses
impeached
cling
dome
clings
harding
grievous
intern
shriveled
sinks
accuracy
criminalization
indifference
disrepute
liar
committing
lynching
d'etat
rolls
exclusively
constance
suburbs
peacemaking
enhanced
deception
dire
feelings
polar
treason
hunted
amidst
extraordinarily
resilient
deepens
rejecting
soften
jefferson
perjury
convict
startled
heal
booed
heed
bolted
knocking
42nd
acquitted
partisanship
paula
obstruction
denying
profoundly
impeachable
defined
fathers
schumer
penultimate
spun
break-in
watergate
murky
arkansas
examine
disconnect
cbs
58
enters
rife
linda
dismal
blink
convenes
steadfast
commandments
slavery
ridiculed
fountain
pen
fat
kid
uncommitted
wore
rethink
correct
relativism
lessened
esteem
entrusted
serrano
hate
bronx
bunch
bullies
theirs
dealing
serial
violator
law-enforcement
innovative
culminated
lame-duck
rushing
michigan
ghosts
parallels
cheated
rooted
conceal
fiercest
pillars
joy
upholding
lawlessness
honesty
assailed
conyers
ranking
unfounded
scorn
dress
abuse-of-power
ebola
guys
seal
scratch
surreal
bizarre
split-screen
useless
cliches
pawns
rabid
hide
dirty
laundry
avatar
rotting
self-esteem
utterly
succumbed
choked
greatness
spurred
bounty
fools
crazed
hatred
huddled
rides
wonderland
quarantined
soak
obsessed
agrees
immoral
selfish
'60s
hideous
mclaughlin
perjured
testifying
ordinarily
doomsday
high-tech
hawks
incredibly
brent
scowcroft
revelation
leaped
kaleidoscopic
brokaw
echo
mantra
speculating
ploy
repercussions
tug
countered
anti-aircraft
purely
visual
explaining
roam
zoom
shots
decorum
updates
chatted
walkout
photograph
heated
midafternoon
intruded
fissure
contended
briefings
beneath
flourishes
catches
baikonur
multibillion
24-ton
unmanned
cash-strapped
administrator
superstition
wood
manned
consist
2004
endeavors
12.4-meter
41.2-feet
three-stage
proton
gradually
adjust
inhabitable
deadlines
segment
koptev
beleaguered
emotions
glued
khrunichev
readied
heralding
colonization
cheered
capsule
lift-off
bunkers
poisoning
countless
daniel
epoch-making
perfectly
soaring
steppes
reverberated
plain
anxiously
panels
ushers
predominant
energia
u.s.-led
chronically
rents
carries
accomplish
faultless
steppe
tweak
157
launchpad
heralded
unspecified
lobachev
jointly
navigational
furthermore
shield
cripple
interesting
inevitably
jittery
abruptly
finances
upheaval
luis
neves
brazilian
tackling
penalized
modernize
creeping
interamerican
reprieve
weaknesses
colombia
arise
drafting
adjustments
richest
henrique
cardoso
dikes
spreading
eighth-largest
hikes
totaling
actively
factories
workplaces
hammers
nails
screws
bolts
joao
felicio
preposterous
strapped
punished
curi
sao
paulo
110,000
enthusiastic
harsher
belt-tightening
curbing
ballooning
circulating
shortsighted
casualty
buffeted
outflow
hiked
product-for-cash
swap
slashing
zero
bonuses
ninth-largest
parente
inter-american
sums
outline
brazil-imf
reiterated
achieving
surplus
ratio
gdp
sagging
slash
paring
perks
brasilia
65
output
readies
brazilians
courtesy
snack
barber
buffet
cheaply
repair
unveil
deficit-cutting
spate
dubious
globo
persian
runoff
sink
joaquim
roriz
minas
gerais
consumes
free-spending
automatically
concrete
reporting
16.77
widest
projected
troubling
weakening
end-of-the-year
containers
piers
midwest
wheat
impoverished
fishermen
lobster
slowed
chinese-made
besieged
incipient
setback
centerpiece
evaporating
daley
deterioration
peso
chiefly
automobiles
automotive
manufacturers
budged
stave
ripple
revised
tracking
tops
lagging
fodder
draining
worsen
hemisphere
fine-tune
discretionary
morgan
reassurance
scenario
reassurances
blows
kcna
broadcasts
anti-american
saber-rattling
jong
touch-and-go
bracing
aggressors
curators
pledging
revenge
vowing
suicidal
unconditional
dong
ocean
il
inspection
kartman
satisfying
four-year-old
nuclear-weapons
spy
satellites
photographed
yongbyon
stockpiled
plutonium
structures
crippled
pouring
cement
reactor
reprocessing
convert
bomb-grade
flatly
mountainside
slander
slandering
defaming
topics
dae-jung
determines
viability
firing
perry
proudest
achievements
unfriendly
authoritarians
annoying
allende
scream
shouting
anxiety
lure
piped
situations
loudly
volunteered
covert
miserably
burr
zealanders
predictably
rude
assuring
staring
repressive
installation
lobbed
diego
murderer
avid
anthrax
nowadays
irritant
annoyance
pest
opposing
tolerates
outlived
usefulness
useful
domino
eminently
competitiveness
touted
sour
prickly
killer
discourse
ostensibly
western-style
openness
leapt
nukes
strengthening
overreact
balked
dae
jung
affirmative
softening
briefed
detail
sandy
berger
reneged
five-day
guam
parallel
beginnings
pursuing
sunshine
answered
film
hole
tolerate
proliferate
consumed
letting
deterrence
weapons-grade
criticize
backsliding
folk
hourlong
dinner
concert
musician
conglomerates
chaebols
impatient
questionable
cocoon
fund-raisers
compact
donors
heartbeat
saxophone
ohio
boyle
philadelphia
fund-raising
refrain
scattered
motorcade
reminders
mockery
teamsters
chanted
supportive
impromptu
greeted
impassioned
reprise
preferred
billboard
lovin
cartoon
shoulders
monument
beside
urgency
schoolchildren
audiences
calculation
`oh
adversity
apathy
tobacco
acknowledges
reps.
julia
carson
centrist
duke
yale
freshman
roots
recapturing
peril
variable
contests
snyder
martin
frost
melvin
watt
sander
levin
acknowledging
capitalize
influencing
straddling
sensing
weighing
hopping
bandwagon
express
reflection
challengers
novices
differing
roberg
raleigh
indianapolis
gary
hofmeister
discomfort
paused
stump
voter
courted
appalled
relating
parking
gun
knife
armory
derringer
machinist
disability
outrage
pathetic
proudly
informs
whitewater
cruel
hoax
accountability
timothy
daly
redrawn
durham
emphasizes
decidedly
doctorate
enclave
rivera
left-leaning
alfonse
d'amato
endorse
neutral
1199
endorsed
risked
endorsement
risky
angering
illogical
filibuster-proof
60-seat
120,000
municipal
curb
nevada
irrelevance
rupture
50,000
endorsements
trades
reckoned
voinovich
margins
glenn
retiring
benchmark
undertaking
crisscrossing
describes
grass-roots
attracted
foremost
astronaut
61
lackluster
steward
discusses
disparities
unconstitutional
remainder
earmarked
statewide
narrowing
disparity
better-known
aiding
tier
terrain
depriving
geographic
canton
sandwiched
reception
cleaner
rubbed
dismissive
bradley
uphill
face-off
condemn
shimkus
lithuanian
descent
lithuanians
baltic
boast
folks
sponsors
tend
special-interest
pet
quietly
gigantic
omnibus
credits
chickens
subcommittee
minors
notify
contraceptives
federally
funded
appease
shortchanged
veto
coburn
gay
lesbian
intensely
deliberating
tightest
factors
extremist
signify
fraying
intensity
surrounding
underscores
defeating
filibuster
sentiment
empire
bipartisan
contributors
liberals
infuriated
endorsing
ratings
inching
donna
pitch
cocktail
candidacy
landslide
crowning
reposition
sponsored
discrimination
electorate
angered
kerry
weld
snubbing
biased
droves
wavered
bruno
anti-gay
foreman
upstate
upsets
ire
croatia
sits
hague
belgrade-based
non-governmental
humanity
at-large
croatian
ellis
consisting
cooperates
republics
secession
indict
miodrag
scheffer
underlings
anti-serb
zejnil
delalic
captives
government-run
niemann
acquittal
zdravko
mucic
croat
breaches
conventions
oversaw
post-world
tribunals
nazi
superiors
derelict
commit
heinous
disciplinary
adolphus
karibi-whyte
hazim
delic
raping
torturing
esad
landzo
verdicts
20-month
longest
celebici
bats
wooden
planks
rifle
butts
raped
49-page
nailed
gestures
releasing
dusan
tadic
convictions
sparing
acquits
convicts
thank
sunglasses
inadequate
rape
plundering
three-judge
sarajevo
muslim-led
konjic
commited
wrongful
adolf
chilling
goran
jelisic
murdering
croats
reversing
declarations
pleas
close-range
pistol
wipe
brcko
cleanse
serb-run
luka
sava
clubbed
baton
fatally
hitler
halted
kovacevic
ruptured
artery
nicknamed
confesses
bowers
genocidal
symbolism
totals
borderline
disorder
striped
sweater
jeans
slumped
courtroom
relish
tool
compelled
prosecuted
delijaj
clan
mutilated
strewn
emerges
onslaught
pursuers
pajazit
decapitated
hava
thread
rocky
mowed
miraculously
6-week-old
lumnije
imer
avowed
uniform
discover
cooked
compound
crawling
dirt
bloodied
delijajs
forebears
uneasy
truce
bent
paralyzed
patriarch
fazli
94
slaughter
prosecutions
ravine
shallow
maloku
avenged
rocket-propelled
47
bajince
reservists
time-honored
feuds
carve
outdoors
spared
foot
bashkim
youngest
bedridden
convoy
smoking
cigarette
axes
courage
barn
torso
bones
biology
makeshift
foam
mattresses
sister-in-law
coat
girl
jacket
corpses
habib
53
teen-age
antigua
uncle
sharif
documenting
indicates
conscious
accompanying
guide
war-crimes
identifying
researcher
color
photographs
outsized
eagle
draped
remorse
purposes
bajram
helpful
faulty
contacting
male
qureia
abu
ramallah
accelerated
hilltops
dismay
outbreak
incitement
stones
horrified
dragged
chunks
mob
750
parliament-in-exile
pnc
attendance
reaffirm
nullification
proclaiming
impetus
sharpening
yosef
lapid
maariv
silvan
shalom
yelled
tibi
hamper
emboldened
foment
siding
worded
confiscating
unruly
implicit
aired
annoyed
quicker
considerate
expire
retracts
conciliatory
hostile
bloodshed
thieves
petty
600-member
deleted
rescind
af
squabbles
denounce
revoke
stone-throwing
procession
17-year-old
iyad
fomenting
calming
conferring
strung
problematic
revoked
acclamation
usher
seizing
implementing
124-member
discord
affirmed
decision-making
annul
ushering
annulment
offending
moshe
fogel
evasive
null
abstained
constructive
sided
anti-israeli
trilateral
danny
naveh
nablus
aqsa
holiest
prayer
reinforces
disagree
annuls
1964
littered
canisters
tires
flaps
fitful
wind
koranic
verses
smoked
reflective
nasr
cousin
elders
headdresses
nephews
athletic
grief
determination
dis
jostling
confines
fret
shudder
cafe
ripped
languishing
holocaust
trauma
biblical
testament
retribution
swords
crusade
halting
protracted
stranger
bury
gunned
abide
cede
principals
cloud
simultaneously
shatter
vainly
bulldozers
satisfaction
acknowledgement
desperate
casting
foray
14-year-old
taher
samir
salam
remembered
lesson
senseless
rhythm
intractable
feud
ignite
feuding
late-night
chelsea
cooperative
judaism
throwers
hebrew
forgo
fulfillment
phony
snag
froze
apprehension
no-confidence
passages
dreams
ziyad
clintons
defies
affirms
revocation
land-for-peace
upsetting
backtrack
listing
pack
brushed
adhere
recommendation
romano
prodi
postwar
depended
defector
second-longest
oscar
luigi
scalfaro
stays
technocrats
mustering
far-left
provoked
stimulate
azeglio
ciampi
technicians
bind
refounding
mauro
overhauled
communism
hinge
francesco
cossiga
mercurial
fausto
bertinotti
clemente
enlivened
marxist
imperil
slender
armando
cossuta
branded
torpedoed
backpedal
devise
gathers
italians
borrowing
center-right
invitations
sprung
obliged
tender
clouding
planners
passing
313-312
raucous
ascertain
lingering
stripes
admired
down-to-earth
bloated
feat
industrialists
exclusion
amend
sergio
patchwork
frayed
squeeze
grace
silvio
liotta
woo
chechnya
tractor
driver
dig
two-year
landmines
chechen
severed
grozny
cloth
ntv
abducted
umar
bodyguard
gunmen
aslan
maskhadov
darren
hickey
rudolf
petschi
shaw
granger
telecom
ray
verth
tragically
kidnappers
barbaric
condolences
half-mast
turpal
atgeriyev
abduction
eamon
ransom
rash
abductions
henchmen
hostage-takings
caucasus
uk
beheaded
spies
filmed
conversations
gather
extremism
duress
outraged
possession
kidnappings
unharmed
captivity
spying
video
foreigner
extremists
mansur
tagirov
abitayev
methods
confess
haddock
alexei
novikov
grabbed
nixed
vincent
cochetel
ossetia
masked
vladikavkaz
liberated
thanked
captive
predawn
ingushetia
firefight
masks
camouflage
bounced
mikhailov
colin
vera
unhcr
petersburg
galina
starovoitova
reformist
registration
aspirant
assassinated
st
mourn
stairs
atmospheric
fyodor
dostoevsky
19th
masterpiece
fictional
putin
fsb
52
inspired
anatoly
chubais
stepashin
telegram
gennady
seleznyov
duma
upheld
lofty
hugged
adorned
andrei
sakharov
spitting
vitaly
ruslan
linkov
regained
consciousness
five-hour
mourned
mundane
thugs
pistols
stalked
grigory
yavlinsky
yabloko
powerless
cheeky
scum
walking
27-year-old
description
killers
remarkably
post-soviet
swamped
vladislav
hitmen
high-ranking
infected
kgb
berezovsky
commonwealth
overshadowed
comrade
historian
revered
trusted
outburst
saddened
bench
martyrs
slain
stately
mingled
heroes
feisty
indicative
scare
sacrificed
marble
ethnography
casket
ribbons
mourners
grimly
classical
respects
bitterly
speakers
chernomyrdin
yarov
irrespective
daylong
suburb
interred
nevsky
monastery
composers
modest
scaled
detective
assumption
greats
candles
staravoitova
regaining
gunshot
kozyrev
stalin
torturers
apartheid
counseling
reconciliation
villa-vicencio
perpetrators
anti-apartheid
africans
painful
traumatic
maimed
favoring
wrongdoing
squad
eugene
kock
stein
neurobiology
disorders
typified
likeable
dubbed
fourie
physiotherapist
emotion
atrocity
apartheid-era
anc
implication
nelson
mandela
archbishop
desmond
tutu
chaired
comission
thabo
masebe
informing
implicate
dullah
pretoria
f.w
klerk
implicating
state-sponsored
commissioners
embarrassed
rulers
horrors
3,500-page
culminates
tasked
bare
africanist
blurred
sapa
execution
winnie
madikizela-mandela
club
pac
reclaimed
responses
judgments
offing
constand
viljoen
even-handed
accessory
excise
scrupulously
vendetta
postponing
leaks
1960
all-race
parcel
condemnations
violators
johannesburg
implicated
divisiveness
traitors
mbeki
surrounds
jan
d'oliveira
ex-wife
racist
dragging
consolidate
bodyguards
prosecuting
supremacist
injunction
human-rights
zulu-based
witch
hunt
humiliate
afrikaners
impartiality
terreblanche
stellenbosch
creates
definite
concocted
criminalize
vile
subjects
excited
pal
martins
complaining
competence
pale
sheep
ostrich
theatrical
notification
adriaan
vlok
johan
der
merwe
applying
portion
1970
undertook
unlawful
extrajudicial
collusion
groupings
inkatha
foresee
deliberate
p.w
botha
perpetrated
persons
forcible
logistical
a.n.c
s.a.d.f
paramilitary
caprivi
kwazulu
magnus
malan
mangosuthu
buthelezi
instances
awry
reconnaissance
durban
informers
collaborators
condone
vigilante
disquiet
deliberately
emanating
dissented
mining
privileged
ifp
unveiled
elbows
dock
lots
withstand
kwazulu/natal
'90s
idealistic
healed
grudges
exhaustive
settling
pragmatic
unrepentant
commissions
gruesome
sobbing
smashed
genitals
judged
forgiven
persist
non-racial
torn
howling
anticipating
unfair
advocacy
banded
georg
meiring
embarrassing
lesser-known
townships
leon
lonely
confession
amnesties
forgive
bicyclist
lashed
scarecrow
lifeless
matthew
shepard
wyoming
coma
albany
henderson
aaron
mckinney
arraigned
robbery
first-degree
kristen
chastity
pasley
accessories
tormentors
laramie
sexuality
tina
labrie
courageous
yourself
braces
teeth
boulden
fort
collins
colo.
arabic
alma
mater
rig
inspector
casper
belt
enrolling
phillip
denver
fences
grazing
railroad
revolves
homecoming
hunting
equality
homosexuals
marv
liberties
cheyenne
packing
campus
haunts
fireside
rodeo
cowboys
gays
drunk
bartender
galloway
calvin
pistol-whipped
.357
magnum
begged
o'malley
wallet
dump
weeklong
observance
lecture
heather
carla
wrestled
attitudes
uniformed
brass
450
armbands
passersby
candlelight
vigils
poudre
deteriorate
nurses
vigil
shannon
rexroat
branding
heritage
jamie
passerby
bubbled
lesbians
boomerang
atypical
assaulted
derision
ropes
ric
turley
vandalized
erased
blotted
spotted
skull
fracture
fracas
grieved
prevention
prejudice
geringer
sickened
proportion
heterosexual
rob
transferred
lugano
preference
respecting
shepherd
temperatures
fanned
spawning
hate-crimes
soft-spoken
dangling
rebecca
isaacs
galvanize
legislatures
hate-crime
columbia
penalties
origin
orientation
holdouts
anti-hate
circus
privacy
burial
wyo.
birch
awakening
curtail
silencing
steven
schwalm
dedicated
paulk
advertisements
anne
overcame
conversion
norms
springs
advocating
categorically
preach
brian
directs
escalate
preventable
offenders
bashers
socially
imagery
nailing
intruders
animal
dorhn
lambda
deranged
co-hosting
salvo
tacit
demonize
print
produces
trumpeted
insuring
exposure
malice
addiction
implicitly
cured
eaton
bauer
broker
hates
difference
sinful
diseased
un-american
seekers
scapegoated
propaganda
byrd
savagely
log
cabin
discriminatory
robertson
wondered
wreak
disney
ku
klux
klan
apologize
dares
loving
hug
tearful
comatose
propped
fraternity
float
mistook
pi
kappa
alpha
campuses
universities
jennings
girlfriends
vermont
wayne
hits
catalyst
homophobia
respondents
skipped
unsafe
percentages
verbally
karen
franklin
psychologist
penn
des
moines
classroom
recording
hears
courses
weed
preaching
anti-racism
anti-semitism
jokes
sentiments
detectives
rainbow
chorus
applauding
reacts
kitch
homily
pews
episcopal
presbyterian
judging
snowstorm
blanketed
robes
royce
pastor
eulogy
concentrate
outrageous
cards
consolation
anti-homosexual
umbrellas
spectacle
unanimously
ordinance
flat
classmates
pit
stickers
helmets
striving
kreifels
classmate
attributed
architectural
rigorous
bike
mishap
limestone
rock
dusting
fading
noticed
nylon
cord
nation-wide
mesut
yilmaz
interfered
mobster
deniz
baykal
yigit
gunes
taner
auction
audio
cakici
fend
bidders
revealing
mass-circulation
motherland
impropriety
shady
motions
tampering
virtue
doomed
self-appointed
guardians
premier-designate
tansu
ciller
ex-premier
rebuffed
arch-rival
mafia
fades
broad-based
islamic-oriented
yalim
erez
recai
kutan
bickering
withholding
faction-ridden
priorities
dedicate
fundamentalism
abolition
adult
downtrodden
sympathies
occupy
exploitation
flirting
ideologies
interval
1960s
fiefdom
applicants
loyalty
builder
turan
encountering
integrating
devolution
modestly
tastes
eliot
volumes
poems
devote
honoring
canadians
abortion-rights
anti-abortion
gunman
abortions
diminishing
sniper
commemorate
fetuses
performs
ontario
manitoba
shootings
slaying
barnett
slepian
buffalo
kopp
uneasiness
keith
winnipeg
tightened
day-to-day
toronto
obstetrician-gynecologists
modifying
vests
susan
edmonton
alberta
marilyn
intimidate
speciality
shortfall
health-care
burnout
deterring
graduates
adequate
journeys
edward
brunswick
nova
scotia
ru-486
pill
boycotts
profitability
impartially
annually
three-quarters
pro-choice
sacrificing
eliminated
mainstay
availability
affluent
unwanted
pregnancy
gynecologists
gynecologist
objection
referral
specialized
unplanned
pregnancies
universe
slayings
co-director
clinical
ethics
wade
legalized
guttmacher
reproductive
calculates
decreased
residency
laura
contends
teaching
miscarriages
decreasing
obstetricians
hausknecht
parenthood
impending
physicians
choate
antagonists
lie
publicize
horizon
edinburgh
plummeted
obstetrician
albans
vt.
amherst
maiming
denise
o'donnell
synagogue
kitchen
janet
reno
heighten
bryant
physician
disbanded
uncovering
dating
bernard
tolbert
chevrolet
cavalier
plate
melinda
dubois
womenservices
relax
vigilant
pickets
anti-abortionist
lotempio
stormed
rowdy
rosary
heartbroken
counselors
whenever
profanities
blocking
epithets
connects
abort
haunted
fetus
circled
hail
bands
volunteers
behn
reunion
militancy
murray
quantity
spots
snarled
perch
entrances
leaning
taunts
unmarried
faithful
non-violent
protestors
antiabortion
hamilton
spectator
veiled
resembled
flier
biographical
hoaxes
itinerant
warrants
dorothy
hayes
rambling
peck
cheek
suburban
spends
shutting
norman
weslin
disavow
blockade
ann
interfering
sacrifice
persistent
obstruct
hospitality
restrain
homemade
oven
trailer
lock
observances
unborn
concede
unwed
mothers
devotion
blessed
helpless
fredericks
mended
robust
housed
kenny
pleasure
gentle
circles
misdemeanor
mill
portrayed
mailing
explanations
shooter
wound
prominently
discredit
belong
booths
coordinating
volunteer
bernadette
prenatal
infant
refrigerator
partial-birth
late-term
hardest
blockades
endured
strangers
cans
checkups
pig
occasional
weekends
demonstrator
murderous
surrendered
h.
amanda
robb
niece
one-dimensional
abstract
multiple
politicized
crusader
obstinate
unassuming
conscience
dictate
teetered
muck
wives
bart
obstetrics
exposes
recall
impatience
inner-city
shameful
imperfections
irritating
equipped
swimming
gadgets
trajectory
comfortable
grandfather
immigrant
propelled
decreed
serena
b
manufacturing
leather
soles
in-laws
freelance
researching
origins
library
transferring
zoology
guadalajara
funny
receding
hairline
comers
schwarz
whining
quirky
crippling
inch
dealer
cab
graduation
registered
nurse
scraped
soothing
durlak
needles
insulin
injections
dr
fairs
schenck
lunged
futile
bashful
uncomfortably
jeered
hanukkah
brandishing
bat
fuss
taunted
nuisance
administer
injection
bouquet
hypocrite
lawsuits
resented
tended
dared
venom
inconclusive
spiritually
fink
parrot
mortality
blockage
recounting
coronary
buckham
reopened
grin
dance
halloween
revelers
deathtrap
auschwitz
lennart
olin
goteborg
deadliest
boraas
edmundson
burn
binan
atta
macedonian
bubbly
hammarkullen
lutheran
jumped
11:43
2243
blaze
two-story
59
bengt
staaf
trampling
scuffling
tt
olds
spirits
anticipation
incomprehensible
dimensions
jamal
fawz
lamps
loudspeakers
ambulances
buses
inspected
exits
evacuation
anna-lisa
saar
oestra
bag
435,000
arson
teenagers
fast-spreading
gutted
carlsson
somalis
goeran
persson
midday
carl
xvi
gustav
dancehall
teenage
sixty
panicky
racing
squads
ortarsen
firemen
disc
jockeys
bash
screams
pile
inscriptions
caroline
ericsson
lasse
disfigured
firefighter
ears
eyelids
scars
degrees
f
cellar
undetected
licensed
nationalities
ethiopians
wrackingly
licenses
bonkers
padres
shave
promotion
raffle
post-season
tommy
producer
jeff
bald
gwynn
wally
joyner
greg
vaughn
leyritz
barbers
yankees
braves
championship
two-game
four-of-seven-game
banners
moores
lucchino
diversified
generations
lane
murphy
grandchildren
sold-out
qualcomm
beer-drinking
balmy
x
tijuana
carrion
baja
souvenir
shaved
play-off
knoblauch
inning
yankee
chase
memorable
liked
rumbling
forgotten
pennant
champagne
dripped
vilified
leaguers
bounce
alcs
villain
travis
fryman
umpire
scored
4-1
cone
at-bats
bottle
derek
jeter
errors
darryl
strawberry
happily
kick
mirage
outfielder
o'neill
lymph
abdomen
chemotherapy
laughed
eric
wheelchair
wow
wells
starter
throttle
prediction
caps
inspiration
postseason
lineup
left-handed
orlando
hernandez
pitches
shutout
innings
mariano
pitcher
erratic
andy
pettitte
outing
slump
bernie
brosius
holes
chili
fastballs
ashby
tino
funk
posada
excellent
ken
caminiti
finley
pitchers
baserunning
first-to-third
steal
sterling
hitchcock
runners
quilvio
veras
leadoff
hitter
adept
jam
bochy
sinking
fastball
slider
right-handed
playoffs
hitters
weakest
myers
langston
waned
hoffman
unspectacular
shortstop
gomez
baseman
glove
fielder
infield
balls
switch-hitter
batting
left-handers
big-time
outer
jamming
jump
ruben
tendency
resisting
lays
overpowered
cheats
chases
anticipates
fares
ricky
ledee
dives
three-run
homer
slam
inadvertently
umpires
progression
ted
hendry
leagues
brinkman
six-man
richie
garcia
gene
budig
ah
oops
orioles
brunt
reel
hart
controversies
ejecting
hargrove
batted
vizquel
stir
sharper
dale
crawford
guillotine
leonard
coleman
nl
splendid
tampa
torre
divisional
parsley
florida-based
compare
insatiable
three-tiered
practically
mentality
super
bowl
losers
demons
sore
reward
excellence
daylight
dodgers
resist
flung
hyperactive
devoid
astros
rangers
touch
wild-card
sammy
sosa
cubs
lindbergh
mets
sox
qualification
repeating
phrase
nineteen
luster
play-offs
handles
swung
leaguer
aluminum
letterman
at-bat
pleasing
strikeouts
homers
singles
needing
groove
rbi
2-0
alterations
plates
pacify
steinbrenner
right-hander
cecil
paced
attractive
fun
enjoy
crumbled
trailed
5-2
seventh
seven-run
9-6
mound
earliest
back-to-back
whopping
reliever
notoriety
gaffe
no-strike
duck
shook
hyped
weightlifter
half-ton
dugout
helmet
banging
singled
flied
snapping
3-2
cookie
tasty
pumped
fielders
outs
grounded
catcher
conventional
golf
runner
scuttle
contraceptive
contraception
pills
impotency
accomplishment
noble
stall
taxpayer
helen
alvarez
bishops
births
okays
thorny
preservation
gravel
wildlife
alaska
slice
aleutian
cove
unreliable
emergencies
risking
anchorage
unjustifiable
seasonal
migratory
anti-environmental
itching
stevens
murkowski
companion
don
chafee
rhode
environmentalists
exerts
bureaucrat
bumpers
alaskan
amiable
nights
bargainers
plow
static
irked
swooping
portrayal
guardian
republican-led
castigated
disengagement
steeped
scant
martha
aspen
postpone
slack
d-calif.
splits
statistical
sampling
supplement
stalling
digging
heels
half-year
obligation
african-americans
hispanics
undercounted
restricts
carolyn
maloney
realization
laughter
staging
high-stakes
hash
formulate
hiring
railing
beltway
bureaucrats
affiliations
shuttling
nitty
gritty
wrap
splitting
calculating
naina
hesitated
check-ups
67-year-old
curse
magician
calmer
drs
mrs
uzbekistan
stumbled
tashkent
uzbek
karimov
limelight
improving
residual
wreaths
alisher
yakushkin
c
smuggling
kazak
nursultan
nazarbayev
combating
trafficking
spillover
wracked
sciences
travels
decisively
forestall
sideline
ailment
unleashes
antibiotics
bronchitis
fever
37.4
celsius
99.3
fahrenheit
hospitalize
almaty
shortened
revives
fitness
nursing
quintuple
dyachenko
mironov
gazeta
front-page
misused
clique
incoherent
cough
confused
quashed
arises
grapple
volk
sneeze
wan
joking
anti-yeltsin
rocking
pity
engagements
okay
overtaken
mityukov
ignore
obe
recuperating
satisfactory
luzhkov
summits
whiff
browsing
ignited
boldly
movie
prodded
folded
industry-dominant
collided
no-holds-barred
recounted
unreported
compaq
loading
spyglass
supplying
licensing
intel
brains
chip
pervasive
steamroller
irritated
gatekeeper
innovation
circling
warily
define
storied
replies
barksdale
rosen
lever
preferential
apis
55-year-old
macintosh
labs
graphics
disk
browsers
microsoft-netscape
sworn
reads
clarifying
portions
hey
portrays
distributing
upstart
ambition
plumbing
memo
tidal
usage
arm-twisting
bully
squelch
episode
shelve
multimedia
employs
innovations
santa
clara
grove
livid
mcgeady
fanciful
distortions
betrays
utter
computer-industry
unpublished
manuscript
yoffie
backfired
inviting
perils
outset
hasten
initiated
colbeth
o'hare
recalls
integrate
vanish
shifted
scrambled
navigator
load
decker
procurement
bluntly
adds
unnecessarily
hardball
herbold
snippet
singular
tying
integrated
bolting
tosses
towel
fast-growing
watcher
tracked
all-out
assessed
exploding
compuserve
advancing
precisely
paramount
brad
colburn
hairs
confront
head-to-head
prosper
ambivalent
scooped
breyer
shapes
menlo
guidance
yearly
clarity
maffei
sand
peers
leaned
co-founder
perkins
byers
washing
toasters
clout
database
broadening
quicktime
avi
acceptance
clearer
alphabet
two-week
examination
ambiguous
clashing
vicissitudes
stakes
lawsuit
voluntarily
reinstate
determining
exclusionary
locks
yielding
reasonably
highlands
1951
lorain
skiers
augurs
consultant
pounced
hypothetical
et
surgeons
anesthesiologists
functional
concurring
vendors
nowhere
rejoinder
bless
stamping
arbitrary
simpler
predation
pave
baxter
contradictory
stiffen
spine
sherman
1890
malleable
statute
toothless
trusts
modernization
industrialization
barons
restive
monopolize
magna
cheese
1900s
antagonism
tapped
roosevelt
kerosene
enterprising
swelled
taft
historians
ron
chernow
titan
best-selling
honeymoon
spanned
administrations
evolved
pc
collaborating
os/2
publications
norris
byte
environments
woven
nine-year
outgrowth
branches
joel
klein
statutory
restriction
invariably
dita
beard
lobbyist
itt
authenticity
depart
commented
foolish
farther
files
consent
overtook
marketed
collaboration
intuit
high-risk
afield
remedies
loosen
doubled
co-author
appeals-court
namely
cravath
13-year
mid-april
schiller
mentioning
creator
piled
explains
microchip
handwritten
28
quotes
intriguing
contending
retaliate
snowballed
amended
elevating
felony
fines
invoked
deemed
thereof
exceeding
punishments
discretion
gang
tanzanian
suzuki
rashid
hemed
mustafa
mahmoud
khalfan
omani
fahad
yemeni
furnish
nissan
atlas
chassis
detonate
locations
anti-terrorist
eva
schuebel
karlsruhe
reprisals
consulate
hamburg
warsi
sunni
sipah-e-sahaba
prophet
well-armed
launchers
shiite
non-muslims
centuries-old
pakistan-based
harakat
retaliated
dependents
barricades
islamabad
topping
northwestern
peshawar
carrier
foresaw
segregate
correspondence
rahman
cleric
landmarks
238-count
jo
transmitting
detect
informants
transporting
assisting
cowardly
schiliro
constructed
indicts
powerbroker
emile
lahoud
headlined
dominates
128-member
six-year
maronite
nabih
berri
suspense
naval
elevated
fractured
1975-90
55,000-strong
militias
fouad
self-imposed
amendment
pro-syrian
walid
jumblatt
revokes
clears
elects
nov
assumes
front-runner
minister-designate
divulge
tug-of-war
brokers
recurrence
renamed
single-handedly
rebuild
dogged
rebuilt
corruption-plagued
sparking
rebuilds
swearing
recovers
graft-riddled
british-trained
polled
selecting
prelude
generated
unanimous
mandates
globe-trotting
drum
succeeding
nianchun
cynical
1/2
chu
hailan
wei
qing
tumors
xinhua
borough
illustration
deem
fourteen
frigid
prods
robinson
capping
campaigners
deprives
moderating
tightly
mo
shaoping
registers
jin
concerted
safeguards
party-led
plainclothes
intermediate
escorted
contacted
surveillance
palmer
behind-the-scenes
advisor
sporadically
forays
subversives
allay
robbing
budding
interrogators
undermines
resolutely
bud
unnecessary
faxes
deprive
mao
tse-tung
reconvene
intellectuals
illegitimate
silenced
covenants
freer
obscure
primacy
mode
deplorable
proceeded
charade
jiangxi
electrician
1971
parted
tree
schizophrenia
medication
imaginary
magnetic
schizophrenic
disabling
psychiatric
abnormalities
nicotine
fascinated
regulated
Scientists
schizophrenia.
baffling
babies
naturally
rats
influences
full-blown
symptoms
dispel
psychiatrists
flower
flagrant
Chinese
diagnosis
fingerprint
waterlogged
yangtze
evacuating
330,000
safeguard
downstream
China
evacuates
diversion
upstream
soggy
erosion
Yangtze
worn
farmland
crest
abnormal
mid
Committee
recede
snoopy
doghouse
schulz
peanuts
Charles
Schultz
lucy
cartoonist
linus
rosa
repository
half-century
five-week
work.
comic
loser
Peanuts
dear
pint-sized
legends
boca
raton
As
starring
comics
humor
cartoonists
prank
ground-breaking
ebay
Ebay
Only
sotheby
harry
truman
auctions.
anti-fraud
brave
flea
craig
hare
auctioning
fastest-growing
Internet
butterfield
auctioneers
costly
embarassment
auctions
elvis
seller
invests
filmmaker
mcnulty
seven-week
davidians
FBI
Waco.
davidian
freeh
Reno
investigator
sifting
waco
incendiary
Justice
Congress
Waco
missing.
pyrotechnic
Senator
danforth
Six
Danforth
discredits
unsubstantiated
lingered
concludes
U.S.
Government
cult
Attorney
General
IOC
investigates
Salt
Lake
City
Olympic
scandal.
trustees
scornful
uncapped
crisis.
quebec
betrayed
bid.
rocked
expands
reimburse
boosters
Egyptian
responsibly
coles
melbourne
evidence-gathering
Two
plead
cooper
State
format
crowned
fiesta
Fiesta
Bowl
wrinkles
coordinator
BCS
sec
kramer
New
eligible
four-bowl
math
digest
presumably
undisputed
earns
z
2006
Rose
Supreme
Court
californians
evenly
Poll
Research
swim
passionate
defeats
Republican
incompatible
law-and-order
credentials
-lrb-
slate
syndicate
ryan
moratorium
Bush
trails
Texas,
Florida
horrific
bolstered
competent
DNA
caucuses
Republicans
winner-take-all
California's
hampshire
Hampshire
foregone
primaries
relevance
Western
stung
stack
pataki
sneak
barbecue
maurice
beach
South
battleground
GOP
Democrats
demise
McCain
American
free-for-all
Party
quits
attracts
coli
maine
contaminated
meat
E.
Coli
York
partying
pasture
Illinois
sickens
medina
contamination
cluster
chlorinated
transmitted
elusive
bug
instructors
drill
Texas
Japan
two-month-old
epidemic
atm
surcharges
ATM
California
bankboston
non-customers
atms
non-customer
surcharge
Fleet,
Bank
teller
San
Francisco
noncustomers
barring
Federal
patricia
pena
broadside
chatting
Connecticut
t
marlboro
township
bret
vetoes
notoriously
talkative
limousine
cabbies
NY
bans
dialing
bumper
sticker
motorized
drafts
wireless
wheel
motorists
hubble
telescope
Hubble
NASA
deteriorating
mid-october
mechanism
observatory
Discovery
gyroscopes
faltered
celestial
sleeping
ceased
precision
dormant
space-shuttle
adrift
reawakened
nudging
replacing
hibernation
spirited
retrieving
Space
repairs
finest
servicing
upgrade
10-day
Center
sidney
shakespeare
walters
conjured
othello
lov
Lewinsky
vernon
handwriting
samples
jurors
improper
Clinton
Lewinsky's
extra-marital
Starr
establishes
House
Senate
cover-up
British
Czech
Republic
NATO
jean
chretien
-rrb-
Canada
hungary
Hungary,
Poland
NATO.
klaus
Russia
prague
agence
france-presse
French
President
eastward
Russian
PM
invites
Republic,
Hungary
Three
aspirants
Chief
Says
Poland,
resurfaced
Census
masquerading
prewitt
Department
methodology
complement
evolution
biological
Kansas
vote.
apes
hiss
hallelujah
d
spotlight
standards.
delete
curriculum
downplay
dilute
swirling
dust
devils
lu
teacher
pratt
seventy-five
monkey
grades
neglecting
grade
homelessness
housing,
scarcity
subsidized
homeless.
stalking
slept
throats
milwaukee
heating
manifestations
affordable
kitchens
homeless,
mwalimu
julius
nyerere
Former
burundi
liberia
African
Force
European
confrontations
Kenyan
jesse
arap
moi
envisaged
bangui
U.N.
kenyans
tribalism
tackle
countrymen
trc
black-on-black
Indian
ganges
external
pranab
mukherjee
Ganges
water-sharing
imbalance
transit
India,
Bangladesh
issues.
delhi
long-cherished
paves
quo
till
atal
vajpayee
Prime
India
cordial
chittagong
chongqing
municipality
Power
Gorges
Dam
gorges
dam
River
November
redevelopment
effort.
turbines
German
conservancy
hydropower
consultants
Project
ensures
highlighting
relocation
one-million
nearest
damming
gsm
China's
relocate
125,000
bulgaria
thefts
pollution
Union
crime.
syndicates
viable
Interpol
syndicated
modernizing
adopts
rebuked
heroin
producers
shunning
hires
Hong
Kong
floated
cashews
nuts
cashew
Vietnam
pie
Paul
World
nut
tonnes
mozambican
Mozambique
Sri
vna
cooperatives
Tanzania
mozambique
Mozambican
crashes
grounding
introductory
test-pilot
Pilot
School
one-week
tryout
recruitment
Navy
missionary
Aviation
simulators
stormy
disruptions
tossing
jumbo
Civil
guanghan
km
chengdu
aeronautics
zhang
Doctors
Without
Borders
North
Korea
Kosovo
Nobel
Peace
Prize
madagascar
cholera
spat
cleansing
kebede
haile
ethiopia
remembers
amusement
destitute
injustices
saves
podium
goldstein
suzanne
somalian
medecins
sans
frontieres
msf
world-wide
shaft
subatomic
particles
neutrinos
neutrino
atom
physicists
particle
buddha
buddhist
Japanese
reines
opera
subscribe
monstrous
crust
surface
detected
accelerator
tau
cheerful
divorce
tundra
rocks
ice
tempered
Nunavut.
nunavut
self-governing
inuit
festivals
daunting
Inuit
hudson
pole
semi-autonomous
eskimos
Nunavut
squabble
hunters
fanning
feast
wrongs
needle
compass
harper
graduating
hamlet
Canada's
kilometres
moneys
monaco
pierre
Euro
alain
juppe
reassures
erm
Britain
system,
lang
jaques
naples
1999.
Italian
government.
brushing
EU
drachma
fixing
irish
Greek
Parliament
emu
1957
werner
prototype
delors
designs
adoption
euros
profit
bells
ringing
Asian
market.
watery
Mozambique.
gloria
flood-devastated
victims.
restless
impassable
feeding
headline
Some
parliamentarian
tragic
undp
ind
vulnerability
cyclones
proposes
y2k
guru
Web
punishes
mankind
microchips
Y2K
emmanuel
computer-related
generating
undermining
merrill
lynch
adversely
productivity
problems.
coordinators
stockbroking
Exchange
Philippine
Pinochet
Spanish
turbulent
Chilean
warrant.
Chile
Pinochet.
polarized
Pinochet's
arrest.
significance
scholars
Laden
Laden,
airmen
saudi-owned
Taliban
trial.
Embassy
deport
Saudis
Laden.
lighter
Brooklyn
radicals
masterminded
inhumane
reviews
Hamas
Jerusalem
Israel
open-air
blasts
injures
Islamic
Israeli
Arafat
masterminds
Mubarak
downplays
belching
bustling
Palestinians
stargazers
spectacular
low-key
preview
viewing
Leonid
satellite
operators
tail
comet
peppered
bits
meteor
tallest
shower
meteors
inspiring
hazard
hurtling
temple-tuttle
differ
storm.
collides
swarm
meteoroids
heaviest
bombardment
much-anticipated
dazzled
fireballs
East
moist
damage.
swissair
Swissair
Flight
111
wreckage
570
traces
in-house
state-of-the-art
switched
in-flight
airliners
longstanding
eternal
wires
switches
settings
Cause
grieving
disasters
taekwondo
gold.
tajikistan
mongolia
Palestinian
out.
Despite
Games.
swimmers
eyeing
striker
yang
hat
trick
securing
China,
United
warmup
darkest
shame
clinch
springboard
plunges
Cardoso's
victory.
tightening
endanger
garage
toasted
wine
contraband
whiskey
Cardoso
Brazilian
election.
da
doubling
cost-cutting
savor
first-round
dim
glow
long-delayed
Brazil
IMF
Saudi
Turkey
Syria
Libya
edging
hints
Kurds
Syria,
Syrian
dispute.
undeclared
Turkish
Timor
Timor.
Indonesia
Indonesian
stray
villagers
gunfight
northernmost
aceh
chided
unreasonable
rebuff
inaugurate
Gaza
International
First
Israelis
Airport
airport.
euphoria
swooped
glided
literal
red-carpet
19,000
capt
Airlines
Gadhafi
Lockerbie
zimbabwean
mugabe
Libya.
Libyan
UN
deal.
majestic
azure
sebastian
thronged
obstacle
plastered
mock
hailing
surrendering
Kurdish
Ocalan.
Turkey's
insurgents
Rome.
extradition.
Ocalan,
nicosia
Ocalan
three-week-old
defused
spearheaded
josue
silva
economy.
shell-shocked
President's
lenient
paltry
initiate
three-man
billion.
ultraliberal
D'Amato
Schumer
Congressional
duplicitous
scuzzball
Moseley-Braun
louise
abhorrent
worsened
Bosnian
War
Yugoslavia
caseload
Assembly
Yugoslav
Serb
raked
Serbs
US
lone
survivor
summarily
shootout
Chechen
abduct
Britons
Zealander
employing
kidnap
Chechnya.
zealander
No
Heads
identifies
Four
undefeated
Severed
Reconciliation
Commission
White
ANC
violations.
Other
unsparing
Not
bestowing
radiant
cardinal
Pope
beatifies
Croatian
John
II
sun-basked
pilgrims
totalitarian
Croatia.
zagreb
beatified
Cardinal
Stepinac
provoking
Pope's
beatification
angers
raged
neatly
pro-islamic
military-backed
strives
rightful
deepen
secularist
Turkey.
islamists
Ecevit
stoking
inception
rigidly
middle-aged
alcohol
Arctic
blizzards
krzysztof
Poland's
Death
sub-zero
warsaw
inclement
lifts
typhoon
babs
battering
flattened
Typhoon
Babs
129
Babs,
Philippines,
coconut
abaca
catanduanes
landslides
156
Taiwan,
lashes
pesos
typhoons
donates
one-year
commodity
inflationary
Philippines
cooking
drastically
retailers
copra
advisories
ascend
slams
lynn
Buffalo
Dr.
Barnett
Slepian
seclusion
reeled
Slepian's
depraved
neal
programmer
nuremberg
spitzer
marshals
reopens
Swedish
Goteborg
inferno
upstairs
clinging
Most
allege
unanswered
dance-hall
abounded
eritrea
teens
discotheque
Iran's
Council
clerics
Conservative
clergymen
unhindered
Iranian
Hard-liners
clergy-based
boycotted
plowed
Hurricane
Georges
flirted
guadeloupe
puerto
rico
hurricane-ravaged
Puerto
searchers
deposited
haitian
Caribbean
irrigation
canals
Haiti
patches
rainfall
becker
keys
West
Georges.
inflicting
expiring
rainstorm
looms
riders
objectionable
continue.
fade
3com
hand-held
Microsoft
Palm
testified
Netscape
dividing
stinging
forcefully
twenty
refute
watchdog
bombing.
bombings.
directing
archipelago
gifted
academies
Kenya
enlists
Nairobi
unionists
debt-laden
PAL
resumes
cathay
airways
Cathay
8,000
espiritu
Pacific
workforce
sacred
highest-profile
Qin
minus
multiparty
supremacy
One
neurological
childbirth
sufferer
prints
contagious
predicts
"Peanuts"
Santa
Museum
cartoons
eBay
beware
tightens
acquires
outage
dealers
auto
foothold
refutes
releases
undisclosed
fire.
criticizes
flammable
probes
entertaining
year-old
granddaughter
wooing
disappointing
premiere
Massachusetts
softens
Primary
Democrats,
Bush,
Super
clarify
McCain,
packer
festival
slaughtering
dead.
interstate
ban.
driving.
accidents
restrict
outweigh
update
recounts
Canadian
France
accession
Clinton's
census.
upholds
Board
vote,
alter
fuels
removes
National
youthful
Special
peacekeepers
undergoes
Indo-Bangla
accord.
stemming
relocated
completion
inundated
Police
cybercrime
reverses
Mozambique's
Air
missionaries
"Doctors
Borders"
Kosovo.
zinc
detector
neutrinos.
detectors
The
Northwest
Nunavut,
self-government
isolation
reiterates
rains,
cyclone
delivers
Mozambique;
landmine
mitigate
plaguing
misleading
pros
objects
pursues
airs
prompts
unexplained
CEO
video-on-demand
Games
steroid
elections.
Syria.
buzz
confronting
territorial
mediating
Tribunal
Truth
Stepinac,
experiences
N.Y.
fanatics
correspondents
elections;
unsurprising
rips
destroys
record-breaking
wreaks
completes
protections
Administration
Clinton,
teenager
Tanzania,
Kenya,
re-opens
schizophrenia,
rat
teenaged
divert
logging
prolongs
Schulz
bogus
Winter
bowls
denunciation
sanctity
types
frontrunners
butcher
gyroscopes,
correction
sincere
faults
vehemently
properly
allocating
ponders
evaluator
administrators
delegations
diversity
resettlement
exporter
After
recruits
garners
expels
recount
detection
lab
settles
aboriginal
Brits
converting
fundraiser
preparedness
expected.
wording
government,
magistrates
explodes
bomb,
Father
airplanes
troublesome
berths
scandals
Brazil's
commemorating
Indonesia,
Security
negotiates
cooled
stagnate
perilous
defensive
label
interviewing
beatify
withdraws
snowy
wrecks
disco
reformists
unaffected
riddled
U.S.,
multi-party
secondary
rainy
coinciding
bunker
query
fire;
IOC,
Lake,
Hodler,
irregularities
eligibility
coaches
penalty,
Pope,
redemption
Republican,
coli,
kidney
Senate,
hazards
Hubble,
Discovery,
astronomers
colliding
boring
timeline
obstructing
permits
advises
improvements
re
legality
sues
cornerstone
gallows
landlocked
discovers
fires
inhabitants
reconstruct
ups
implications
terrorist,
embassy,
embassies,
killed,
continuation
cam
Swissair,
Flight,
111,
fielding
swimmer
user
capability
loom
depreciation
military,
Islamic,
extradite,
Turkey,
Kurdish,
PKK,
Yilmaz,
Russia,
Italy,
IMF,
billion,
economy,
Brazil,
Cardoso,
reform,
Democrat,
abusers
Virtue,
disrupts
Estrada,
calamity
heats
disappoint
Hurricane,
Georges,
slows
shillings
Osama,
PAL,
debt,
Cathay,
thwarted
shrunk
#.##
narrows
strife-torn
#.#
restart
brinkmanship
stimulating
sluggish
skorea
lacklustre
electronics
hon
colonial
####
moamer
kadhafi
holmes
drought-hit
subdued
anti-
skorean
lehman
stabilising
indecent
##-year-old
prostitute
pct
abdelaziz
bouteflika
##
caucasian
bordering
earthquake
richter
rattled
quake
shuts
holidaymakers
phuket
###.##-###
.##
ounce
mauritania
junta
#
mauritanian
criticised
us-led
criticises
eon
apologised
belarus
barack
obama
<unk>
plumbed
depths
stooping
mocking
lipstick
smear
us-china
evo
morales
bolivia
eurozone
wartime
rainforests
phenomenon
deforestation
networking
devotees
makeover
baseless
bolivian
paz
evacuations
ike
ravaging
girds
tuareg
ag
renegade
mali
osce
intensify
lavrov
power-sharing
tsvangirai
#\/##
hefty
subprime
bros
jolted
wobbled
mulled
retrial
transatlantic
ceasefire
##-hour
robbers
botched
foil
bible
weathers
deposits
sierra
leone
sarkozy
nicolas
wedding
marries
gul
azerbaijani
ilham
aliyev
azerbaijan
armenia
two-man
afula
ambassadors
churned
machinists
miami-based
strengthens
billion-dollar
aerial
refueling
tanker
fined
#,###
paedophile
ehud
barak
mena
frelimo
pageant
neighbouring
##-month
#.####
yemen
piracy
deploying
aden
centres
somali
pirates
georgian
abkhazia
deferred
serge
ratko
mladic
mortgage
venus
goya
illustrious
picasso
painting
exhibit
masters
###
medvedev
rts
##-percent
jong-il
nkorea
secrets
colors
moroccan
blogger
rockslide
slum
climbs
idriss
deby
itno
archaeologists
unravelling
##-year
bronze
stalinist
hails
contradicting
benedict
ftse
#,###.##
pop
chateau
versailles
pomp
riotous
artwork
re-trial
ballistic
icy
us-russia
mate
sarah
palin
barbs
storm-ravaged
storms
perino
pared
unveils
oil-rich
stockpiles
thaw
eu-brokered
grapples
burgeoning
commodities
licences
kuwait
mulls
cypriot
mehmet
talat
bln
dlr
discriminated
programme
unblock
righteous
powersharing
###,###
buenos
aires
illicit
cristina
kirchner
venezuela
ki-moon
harare
boots
centred
basks
basque
aig
mln
mistakenly
pub
hatchet
bollywood
aspiring
actors
legend
greenback
metropolis
hamid
karzai
welcomes
undersea
rebound
shakes
overfishing
bluefin
tuna
disgrace
fishing
species
rodriguez
zapatero
spanair
antarctica
year-round
founders
skills
fuelling
flashpoint
outweighed
jitters
ruinous
stoked
furor
stokes
labored
tentative
pull-out
maher
lowers
migration
migrants
organisers
tsunami
films
filmmakers
lens
pardoned
unearthed
tombs
metro
salonika
triggers
warplanes
milk
powder
hospitalised
divorcing
polio
nigerian
vaccine
commemorated
fact-finding
enclaves
eta
somber
cameron
ipi
slovenia
finnish
slovenian
santander
postbank
flagging
bern
pacts
mega-deal
slides
umaru
yar
`
adua
transparency
furore
hampering
firefighters
gridlock
dedicates
manmohan
sept
casts
ryanair
dublin
take-off
flowing
four-month
##.#
vi
iconic
####s
bedroom
updated
eurotunnel
decrease
greenhouse
emissions
stricter
battled
afghans
safrican
irna
aung
suu
kyi
panned
enabling
grid
averting
riviera
tumble
german-born
chocolate
magnate
jacobs
ats
nab
venezuelan
hugo
chavez
pro-
grisly
afp
georgy
markov
bulgarian
jaap
hoop
latvia
riga
three-decade
##-nation
hijackers
alitalia
reorganise
bankruptcy
angel
moratinos
dismantling
anew
kickstarted
kickstart
carmaker
renault
sprawling
dips
google
halve
naked
tip-off
maldives
double-digit
yousuf
darker
khaleda
zia
fillon
centre-right
tamil
tiger
sub
noyer
jean-marie
ntt
docomo
asif
zardari
benazir
bhutto
briton
manchester
dubai
emirate
samak
sundaravej
frontline
plantation
recommending
##,###
prostitutes
neo-nazi
manipulating
combatants
slid
mongolian
cracks
liechtenstein
reich
matsushita
kangaroo
hunts
stimulus
#.#-bln-dlr
kandahar
passers-by
sinlaku
ossetian
backtracks
market-boosting
privatisation
aua
misses
&amp;
w
underpants
dancing
drunken
pants
qantas
rehabilitate
pro-government
tribesmen
smuggle
uranium
costume
carnival
owing
tzipi
livni
olmert
ho
chi
minh
darfur
war-ravaged
refocus
eases
swaziland
expiry
dip
karabakh
anatolia
bali
unveiling
expiration
racial
troublemakers
freezes
druze
fence-mending
bourses
cobra
sacking
mend
m-##
iss
mullen
intensifying
spike
d-day
beaches
african-american
thrive
hotspots
fallout
mobilise
drcongo
cinema
explores
bubble
sniping
screening
bond
licence
ex-soviet
#-#
theo
walcott
hat-trick
rout
sequel
actor
hollywood
wilts
priceless
drc
plush
daytime
grilling
attributing
expulsions
diehard
roars
tome
principe
jeopardising
##-##
guinea-bissau
sweeps
bissau
subpoenaed
firmed
revamp
church-state
rigs
au
theater
uae
minsk
belarussian
mwai
kibaki
dipped
explosives-filled
dujail
moguls
ping
jacob
zuma
bolt
kilogrammes
checkpoint
seizes
kilos
infighting
galveston
whipped
frenzy
caution
pump
anti-christian
roiling
espionage
artefacts
undercover
#.#-million-euro
submarines
intercontinental
plots
rider
afptv
wilted
likens
sofia
berlusconi
nasser
al-sabah
inked
szczecin
inks
valdas
adamkus
lithuania
scandinavian
sas
lufthansa
tie-up
seals
volkswagen
vw
vent
tomislav
nikolic
ultra-nationalist
fished
positively
caracas
wamu
hossein
omv
brushes
jibe
extinguished
travellers
wholesale
retreats
mikheil
saakashvili
builds
twenty-two
freighter
desertification
zaragoza
elena
espinosa
helsinki
stand-off
revolt-hit
kashmir
teargas
supervising
colombian
tbilisi
wojciech
jaruzelski
restarted
restarts
kimi
raikkonen
prix
steeper
slip
slew
kantar
cubans
demo
throws
cautiously
sickening
zimbabweans
sailboat
autopsy
topples
bust
wield
volvo
stillborn
uphold
semi-conductor
manufacturer
nxp
##.##
scratching
virgin
branson
finnair
leisure
villager
witchcraft
freefall
disperse
slumps
priced
tarja
halonen
ratifies
taiwanese
ex-president
trumpets
developers
flexes
disruption
raja
petra
juncker
wallets
thinner
reinforcing
gas-rich
mettle
peer
revitalise
embezzlement
money-laundering
fake
deploys
overdose
recoup
kadima
axe
herat
downpors
oil-for-food
mps
sylvia
traded
peacekeeper
headscarf
veil
bruising
pigs
soar
toy
yudhoyono
promotes
##th
atlantis
voyage
collision
disrupted
ex-ministers
sharpen
crewmembers
barreled
#.#-magnitude
ambon
'##
barley
updating
organisation
models
neutralise
wto
slipping
barclays
widens
designer
spring-summer
expo
liquidation
fundraising
booted
rebuke
shrine
lourdes
niger
delta
iaea
theologian
marry
sanctioned
non-combat
nazis
flourishing
deauville
wreaking
divorced
remarry
mocked
detainee
pre-trial
al-beshir
aeroflot
boeing-###
perm
ural
airbus
a###
superjumbo
post-war
staffers
holidays
translator
mp
incursions
royals
adjourned
mogadishu
hacked
correspondent
al-sharqiya
khatami
ahmadinejad
standoff
dived
##,###-point
dive
nine-month
boar
shoots
entice
rampaged
avenge
stabbing
rampage
lauds
overran
photographers
turkmen
vp
leftwing
hezbollah
greetings
home-grown
islamist
dairy
fonterra
nz
tikrit
gehry
billing
venice
lion
sexually
assaulting
nuri
al-maliki
mosul
chronology
docked
puntland
ill-fated
commuter
multi-million-dollar
treasures
song
shine
ivory
gbagbo
artist
damien
hirst
sharks
worsens
urals
warhol
butterfly
centre
therapy
deaf
seychelles
swell
brakes
meager
bites
cabinet-level
burkina
faso
mamadou
foundering
cotton
shunned
chooses
abysmal
scandal-plagued
us-backed
herald
cruz
pitting
heartland
citadel
fortress
assassins
conqueror
lease
aga
posing
statues
bottles
dream
picturesque
crimea
etimor
compatriots
##rd
coen
conquered
farcical
angelina
jolie
pitt
exposed
bankrupt
reels
secretaries
oscar-winning
actress
streisand
glittering
hewlett-packard
hp
eds
fundamentals
eyed
regrets
michelle
alstom
un-backed
mediaset
+
pay-tv
globally
scooping
distressed
methamphetamine
cocaine
frantic
mega
haunt
diyala
streak
shrinks
protocols
budapest
scuffles
stampede
footballer
allocate
###-strong
britney
spears
album
nepalese
gurkha
gurkhas
arch
ain
sidon
bounces
oj
simpson
seven-month
isna
enrichment
shining
mysterious
inject
injects
kroner
pumping
boe
shockwaves
pink
floyd
long-running
supervise
six-point
seven-point
anglican
clergy
ivorians
icoast
acquired
scheme
###.#
refinancing
sleaze
importers
ina
mol
vodafone
telefonica
sn
mdc
abbas
##-billion-dollar
collecting
sabotage
petraeus
energy-rich
shedding
thrashing
tumbles
trek
weds
indiscriminate
buyers
hindu
untouchables
anders
fogh
rasmussen
ritzau
axa
bharti
i.
gcc
roiled
####-##
slips
bnp
paribas
manageable
clandestine
traffickers
flayed
coherent
counter-terrorism
breaching
streamed
escalation
scoured
consortium
fixed-line
non-government
al-qaeda-linked
warhead
commerzbank
winding
paulson
titans
resuming
kagame
nepal
maoist
nato-russia
rows
believers
rebounds
mounts
nordic
ex-minister
bogged
state-funded
hindus
segregation
newly-installed
frank-walter
steinmeier
humane
aftershocks
monarchies
destabilise
sleeper
go-ahead
srebrenica
exhumed
moody
b#
a#
last-gasp
emilio
demolished
firebrand
gkn
sketches
basf
ciba
chemicals
confidently
tighten
remittances
fourth-biggest
profile
cooling
jumps
showcase
designers
vie
gunbattle
troopers
woe
dramas
stranglehold
crying
cac
santos
downplaying
reap
sabotaged
resource-rich
maximize
pre-world
ultra-orthodox
vigilantes
unopposed
locally
dependence
petrovietnam
cai
revamped
sibling
directors
blazes
havana
hurricane-hit
fetched
bucks
financier
soros
centennial
relieving
neared
generic
ranbaxy
purportedly
denial
dvd
flash-memory
sandisk
narcotics
blacklist
snub
chihuahua
guardiola
barcelona
sporting
nou
savors
maiden
barca
dell
##-dollar
detroit
###th
texan
jens
stoltenberg
rescuing
amazon
lambasts
liver
unbridled
mediators
donald
tusk
muddle
seine
habre
senegal
authorised
chadian
ex-dictator
raiders
affleck
thief
adverse
damning
rattles
sabre
aristocrat
ancestral
manhunt
metre
python
anp
searing
ethiopian
blown
assignment
nato-led
directive
underwear
repatriation
majors
horn
insurer
aviva
unnerved
fright
voicing
depressed
hrw
clinching
christians
wobbles
lender
leicester
shareholders
ubs
writedowns
malawi
bakili
muluzi
bavaria
litres
counterfeit
cigarettes
swazi
fernandez
belgian-dutch
fortis
emails
eavesdropping
powderkeg
decades-old
friction
hammering
mocks
rebel-held
outfit
batasuna
odierno
ambush
hbos
slated
cheapest
tata
choppy
slovak
kosice
slovakia
plummeting
firestorm
taming
thaksin
shinawatra
verge
bashar
al-assad
sana
downplayed
nerves
dax
somchai
wongsawat
garnering
roma
busts
obligatory
paedophiles
reopening
fundamentally
assails
anglo-dutch
pipelines
automaker
botswana
buckle
mid-####
rebounding
intra-day
jennifer
outsourcing
weaponry
ayatollah
khamenei
geological
dampen
seismologists
chalk
eyebrows
clean-up
fertility
disappearing
conservationists
yulia
tymoshenko
pro-russian
yanukovych
melamine
defoliant
employment
home-made
orissa
venerable
guitarist
gilmour
mourns
convincing
alastair
darling
weathered
beds
hosting
vodka
estonia
kilometre
estonian
dinosaur
labeling
dissenting
hybrid
highs
upbeat
pirate
capturing
petrol
lenders
banco
totalling
airasia
tighter
christine
lagarde
speculative
commuters
rattling
wagons
cheer
commutes
violence-wracked
bayer
biotechnology
biotech
readying
enduring
multi-billion-dollar
afloat
downgrades
almunia
rudd
sharemarket
staffing
curbs
clearing
smog
upsurge
roller-coaster
anti-dumping
footwear
paralysed
paints
portrait
hazardous
substances
shores
blacklisted
multi
boosts
lg
underage
military-ruled
us-south
deposed
lili
sunnis
unemployed
downgraded
maluku
jobless
dashing
robbed
o.j.
tigers
bell
haute
couture
dresses
spectacularly
hard-won
brendan
malcolm
anti-globalisation
malmoe
breathe
break-up
artists
prado
####-####
rembrandt
sanaa
hopefuls
us-mexico
ceos
unfairly
lifeline
intensifies
nine-time
unknowns
bate
borisov
h
bernabeu
minnows
full-scale
condoleezza
lifelong
plummets
privatise
pantheon
costas
panamanian
torrijos
savages
dodged
beshir
sedan
plank
legalizing
spells
fiumicino
navigation
make-up
zanu-pf
nosedived
subway
busiest
survives
##-day
equatorial
gabon
realistic
cabs
taxis
russian-speaking
crimean
kiev
moscow-backed
radovan
karadzic
defiantly
trimmed
focussed
lennon
yoko
srinagar
high-security
guantanamo
aex
garner
lurched
unsettled
vilnius
montreal
white-owned
commissioned
instalment
hitchhiker
galaxy
publishers
beta
remanded
corsica
criticising
premeditated
vaccination
sepp
blatter
confederations
cup
akp
liberian
ore
hugely
digested
fightback
anti-globalization
monarchy
yemenis
repsol
ypf
policyholders
mauritius
rarest
postage
stamps
retailer
muallem
shadowy
shareholder
#.#-billion-euro
#.#-billion-dollar
barometer
libor
unify
poverty-stricken
pardon
firmer
herewith
##th-hour
pandora
interventions
iberdrola
hsbc
ops
bengal
temples
jibes
rupee
volatility
foods
angela
merkel
inditex
zara
first-half
unabated
policymakers
seng
laced
thirteen
arcelormittal
steelmaker
uncertainties
herve
carbon
plummet
youtube
videos
attracting
viewers
nervousness
reinsurer
francs
###.##
offences
clamps
steam
crept
cheering
bai
leoneans
reservation
representation
sexes
baa
gatwick
sell-off
suisse
minister-elect
olive
faltering
leonardo
royalty
factfile
spiralling
meal
drummer
six-nation
disarmament
patriot
patriots
leak
ammonia
saint
ria-novosti
short-selling
felipe
calderon
confiscate
award-winning
script
late-day
non-profit
massively
bernanke
cox
juliette
akram
americas
flushed
sicilian
extortion
importing
manipulation
scolds
drug-related
chides
flag-carrier
lukashenko
guillaume
mendes
test-fired
new-generation
submarine
anti-missile
shields
test-fires
breast
enlargement
new-born
fest
purporting
mauritian
onboard
coral
reefs
yusuf
mofaz
fizzled
globalisation
bolsters
indigenous
bolivians
two-time
hilary
benign
tumor
rebukes
lloyds
tsb
warren
buffett
berkshire
hathaway
constellation
fibre-optic
fiber
socialism
provisional
sidelines
violence-hit
swings
kicks
collections
much-awaited
gianfranco
duo
debuts
topped
pius
extermination
fascist
staked
douse
pour
koffi
th
embezzled
banda
feverish
safe-haven
edmond
rothschild
tabloid
axel
springer
donkey
corn
agricultural
nile
deported
deportation
##:##
hitherto
wolfgang
amadeus
archives
escalates
no-frills
easyjet
t-shirts
cheat
dexia
materiel
slamming
irresponsible
intervenes
strangled
chopper
han
humiliated
edp
macquarie
waits
daredevil
yves
jet-powered
rollercoaster
insurers
o'neal
belongs
nano
#.###
titles
generate
bullish
hijack
bargain-hunting
monk
throat
yangon
legs
pagoda
ratcheted
ramps
lavish
retract
hynix
semiconductor
grappled
jolts
crisis-ridden
###-billion-dollar
rudy
giuliani
philippines-based
bihar
lends
halifax
supplementary
cushion
serviceman
hurling
imperial
downwards
sooner
revises
aussie
terminated
flounders
anti-terror
myung-bak
alfredo
stalwart
email
infiltrate
gripping
pounding
medieval
gambling
donor
powerhouse
janez
jansa
corruption-tainted
slovenians
cologne
isle
porn
edouard
lawless
submits
anti-piracy
paedophilia
defences
arsenal
nuclear-armed
drowning
surges
starbucks
outlets
spiralled
snowballs
designate
impasse
woody
classics
laughing
funnyman
courting
restarting
mccartney
gig
hotline
bosnians
dent
chill
biggest-ever
seizure
outback
grossly
distorted
backyard
chants
wharf
breathed
sigh
resurgent
escapees
window-dressing
cordon
grants
populist
maoists
powdered
scandal-hit
unionist
ilo
month-long
cross-channel
stationing
czechs
vies
senegalese
escorting
migrant
victoria
isolate
millenium
cannes
untested
fuming
tyres
sacks
pipe
excludes
insurgency-hit
anti-india
excess
life-threatening
redouble
shoot-out
mammoth
lend
us-born
oversight
complications
deserves
suppliers
double-decker
schoolboy
abolished
hq
layoffs
bluechips
toshiba
thirds
dali
catalan
manuscripts
artistic
staving
miners
climbing
denominated
cern
emptied
vented
us-based
loaned
swayed
upwards
kfw
airing
mull
skyrocketed
cac-##
soars
suspensions
indexes
exonerated
wen
jiabao
alleviation
reacting
##-million-dollar
##-million
war-battered
djibouti
pupils
accidentally
tarnish
self
newcomer
emmy
oscars
beers
smokers
incorrect
mini-state
ruthlessly
meteorological
busted
financiers
marriott
thames
brazen
airborne
anti-islam
miliband
disgraceful
scrambles
safrica
stalks
carnage
assam
###-billion
barker
spinner
dj
savers
lauren
booth
najaf
telecoms
dinars
majeure
extreme-right
issuing
modify
dismiss
squash
systemic
basilan
gaza-egypt
potter
rowling
lash
unita
retained
isaias
angolan
paralyse
teeming
colourful
prefers
jintao
cathy
evokes
digests
memorabilia
parkinson
genetic
ex-yugoslav
centre-left
sds
neck-and-neck
tag
enigmatic
opts
thriller
cop
sympathisers
waffen
ss
scandal-tainted
horse-trading
erupting
pre
ambushed
ill-equipped
treasurer
confessions
aghanistan
tigris
michelin
chef
catalonia
tibetan
invaders
airwaves
fixture
trendy
attacker
rammed
medics
harmed
utilities
windfall
ex-general
coptic
gamal
reliance
nightclub
fatah
crisis-hit
#:##
hanoi
squabbling
socialists
kirkuk
canterbury
bears
husbands
alimony
colombo
tamils
averted
mid-air
heralds
haze
flagship
ransacked
bangalore
gripped
looted
heinrich
von
siemens
rituals
monks
polarization
reviving
clouded
us-russian
wreck
horrendous
stabilise
california-based
honorary
dodge
outlaws
jumping
chertoff
ivo
marred
argentine
holders
catwalk
g
strangling
saturn
rings
benefiting
single-day
burden
much-vaunted
cd
mp#
cds
gunpoint
bandits
ordeal
heist
possessed
kgalema
motlanthe
strasbourg
meps
greyhound
peruvian
associations
drones
blaine
stint
utmost
ivorian
ecuadoran
quito
ecuador
scares
patent
celebrity
photographer
dismisses
dare
isaf
than-expected
relaunch
unilateral
outcry
shortfalls
el-beshir
oic
point-blank
coroner
inquest
destination
iberia
footsteps
cocoa
injecting
interbank
betancourt
icons
g#
drought-stricken
skidded
industrialized
sos
french-speaking
beheading
indebted
doubles
non-dairy
bahrain-based
one-billion-dollar
plateau
par
areva
westinghouse
ge
sights
icc
jfk
warships
cruiser
coastguards
nuke
nestle
studio
hari
puttar
smugglers
build-up
relieve
novartis
sandoz
shiites
recep
tayyip
erdogan
plug
newborn
izmir
wolseley
distributor
axed
shin
alcoholic
slap
tycoons
steadied
spar
exempt
##-member
week-long
industrialised
soy
portfolio
rental
bikes
debt-ridden
nepali
goddess
stabilisation
scoops
emmys
relegated
overshadows
lags
four-way
grouping
inched
skyrocketing
fractional
goverment
seabed
shelf
dividends
marginally
saddle
small-arms
adrian
breed
mumbai
whistle
rene
preval
propel
faldo
ryder
fatwa
shrimp
trawler
chiapas
troy
handset
t-mobile
defers
gael
lamented
revellers
fujimori
tackles
divides
multilateral
scuppered
balks
unesco
vacant
crossfire
gunning
quizzed
outdated
defunct
stumbles
ghana
chrysler
automakers
tough-talking
purchased
tajik
arnold
schwarzenegger
communist-era
organ
ebrd
multi-millionaire
batman
parting
ngo
spielberg
same-sex
milorad
artifacts
prone
wpp
compatriot
taylor
climber
metres
alps
rapist
halls
treasure
deep-sea
odyssey
francesca
stiffer
drone
profit-taking
prized
liberalisation
targetting
wilt
repaying
nomura
telephoned
dalai
lama
tibet
tarnished
###-mln-euro
eu-russia
hijacked
luiz
inacio
lula
witnessed
barroso
face-to-face
hike
gunships
newsstands
preparatory
possessing
ex-british
palermo
fragment
vice-president
match-fixing
employer
casablanca
tornado
auschwitz-birkenau
slovaks
east-west
five-year-old
make-or-break
wrest
banked
doubtful
fall-out
busters
hagupit
disrupting
cronyism
rankings
tin
blasting
bearish
oecd
ig
metall
anti-corruption
stun
cops
mahinda
rajapakse
facilitators
sellers
vojislav
seselj
haggling
jia
shortlisted
rtl
simulating
copenhagen
reinsurance
playground
inter-korean
fuelled
misled
geopolitical
petrochina
chocolates
pedestrians
rams
responsibilities
charmed
booked
pubs
greenland
glacier
dengue
debilitating
mcdonald
synonymous
burger
fancy
jewellery
shenzhou
vii
panama
hooligans
mar
rebut
fantasy
zhao
xian
traction
inaction
##.#-percent
toughen
gudjohnsen
icelandic
betis
notch
blushes
cameroon
post-apartheid
normalization
po
adversaries
tate
gallery
expressionist
painter
denier
manipulate
crystal
tooth
cycling
lance
armstrong
astana
dented
culprit
finns
joan
spencer
tracy
fonda
miroslav
effigy
quartet
radically
revise
##-week
watered
stark
louvre
capitalized
erasing
gendarmerie
gendarmes
cues
honey
ear
hard-hitting
ranges
us-style
equip
ramses
faruq
faroe
lottery
###-million-euro
jackpot
.#
wrangled
incomes
twenty-one
eritrean
steeper-than-expected
wwii
cache
steadier
government-backed
protectionism
doha
tripartite
reid
china-made
ma
johannes
ex
exec
bidder
guiding
meteorite
famed
transsexual
offence
probed
brimming
excluding
tesco
edf
clinches
line-up
million-dollar
queues
intraday
cinemas
absurd
heavyweights
prada
chic
bargains
nkorean
candy
rodrigo
youngster
horror
middlesbrough
bhp
billiton
superpower
abc
eat
shrugged
huang
campaigned
caledonia
beatles
unicom
nino
burjanadze
tricky
arcandor
slush
arroyo
masterpieces
shrugging
blue-chips
myspace
den
high-definition
spin
pornographic
simpsons
co
echoing
petit
marie
skins
sanctuaries
conquer
burnt
ashes
hi-tech
estranged
tech
brokerage
bucked
french-us
infringement
decries
warship
snip
rip
parachutes
mayhem
defusing
anti-poverty
malaria
pirating
adamant
beatlemania
valencia
villarreal
scoring
malaga
mistaken
eduard
einstein
transcript
attendants
climb
adventurer
pioneering
deceive
johnny
depp
blockbuster
fabio
guillermo
nabbed
aerospace
eads
a###m
transporter
glitch
mercury
organiser
cold-blooded
caller
unfurled
strides
brighter
healthcare
loud
antoine
gizenga
brightened
sag
fuel-efficient
libelling
faked
narrowed
residential
reshuffled
pelosi
whouse
newly-elected
in-fighting
by-elections
ka
spurring
undue
choppers
hijacking
hostage-taking
rebuffing
id
riskiest
suriname
rollout
high-rise
pull-back
stocked
cronies
forex
exceptionally
diners
antarctic
seismic
dioxide
resists
bradford
bingley
monroe
auctioned
bellwether
slashes
###-million
sealing
wrangles
promptly
celtic
zeev
spiked
#th
subsided
year-on-year
linger
pro-india
ageing
pirated
offsetting
gaping
epidemics
monsoon
sharpened
sihamoni
pardons
authorising
parks
redundancies
transformed
duel
foundations
ngos
salvadoran
toughens
destinations
oracle
diving
balloons
tendered
emulate
griffin
kiwi
parched
keenly
keen
decades-long
harmony
pemex
now-defunct
daewoo
improbable
biopic
renoir
nude
kouchner
raf
rapper
scuffle
ould
confiscated
downtrend
guyana
timber
jailing
nadir
wrangling
geared
expertise
resorts
jp
rsf
sapped
gloomy
billion-euro
kyle
ltd
al-quds
preferences
replaces
speeding
reshuffle
blockaded
afterwards
sanctuary
m
champs-elysees
thumbs
embezzling
revision
undergo
strive
melting
storming
hermetic
turkmenistan
woos
ripping
dashed
counterweight
prayed
al-aqsa
eu-wide
recycling
metals
#.#-percent
straying
authorisation
gears
sonic
booms
admitting
homegrown
latvian
lech
walesa
zloty
kg
eid
al-fitr
semi-finals
luck
anarchic
pedestrian
convulsions
macau
round-the-clock
bahn
oct
ballmer
indicating
ecuadorans
rafael
correa
##st
jpmorgan
coastguard
dutchman
ringleader
beaming
prestige
bucking
laundering
mirror
deposit
midwestern
one-time
mice
andean
broadest
wipes
icj
highest-ranking
noses
wachovia
vinci
citigroup
shakeup
dior
box-office
insufficient
broadband
autocratic
unwarranted
counter-productive
relent
tentatively
hiv-positive
alzheimer
sufferers
moslem
chalked
multi-national
unload
guides
snatched
pre-dawn
low-level
radioactive
jalal
talabani
benelux
princess
maertha
harald
sonja
emma
low-cost
condor
quotas
quota
guarding
abkhaz
clampdown
takeoff
piano
depositors
glitnir
trashed
contracted
un-led
soro
flagged
shaped
reactors
ditch
bolstering
multi-billion
mid-afternoon
eurocopter
rattle
rejuvenate
vintage
plaintiff
cadbury
shrapnel
extinguish
fortified
zastava
in-depth
rio
tinto
centuries
thrashed
france-klm
aloft
protestant
sucked
elbaradei
destroyer
converged
licking
spd
momcilo
perisic
susilo
bambang
jusuf
ambushes
hypo
##-billion-euro
nationalisation
bungling
##,###-dollar
carmakers
debt-stricken
non-proliferation
npt
real-estate
daryl
cruised
##-ball
self-defence
cambodians
bumped
icrc
toyota
beleagured
ineptitude
celebrates
dutch-swedish
akzo
kt
override
bleeding
overlooking
leaf
landfall
billed
unique
warms
bloodiest
###,###-dollar
copying
cooler
realnetworks
dvds
studios
dreamliner
obesity
genes
f-##
pop-up
fast-food
indoor
quote
foster
libeskind
singers
springsteen
limped
limps
walt
feature
transported
ready-to-wear
plagiarizing
diverts
swears
unicredit
three-state
surpassed
outcast
slumping
boot
under-fire
unilever
quantities
share-out
dentist
falsely
wrongly
calais
belly
aluminium
nickel
impounded
airbaltic
flylal
nominees
rubble
woeful
falters
thyssen
renegotiate
rajasthan
oceans
mont
blanc
specialised
dried
sanyo
mi#
high-street
lethargic
recruiting
grill
airbag
develops
boatpeople
off-shore
kbc
didier
starved
amendments
roller
coaster
lorries
hashish
ports
telekom
passion
rod
insee
hwang
tankers
bewildered
trough
ferries
lookout
fifty
mineral
capabilities
festive
ballet
theatre
basking
billboards
gnp
totalled
###.###
sermon
sermons
menace
impress
genital
mutilation
jordanians
portraying
anti-aids
condoms
hurd
rand
softer
\/
rands
un-brokered
growers
federico
pandemic
boutros
boutros-ghali
hitachi
pre-tax
proclaimed
chechens
liner
lauro
speedier
off-spinner
hooper
wickets
toss
cricket
transvaal
xi
elkah
soweto
multi-million
ex-communist
birendra
###-percent
anti-doping
champs
elysees
rush-hour
five-percent
metropolitan
secessionist
courtney
walsh
indies
chanderpaul
p.v.
narasimha
rao
warders
container
lorry
faxon
calcavecchia
lire
slur
bride
jeep
frostbite
atherton
###-run
warne
seasonally-adjusted
forwards
semi-final
relishing
shahbaz
semi
dea
bilingual
dope
sinn
fein
moeller
conditionally
regroup
ionian
espn
modi
ioannina
bosnia-hercegovina
ex-yugoslavia
constraints
thrift
anti-tank
roberto
ac
##-storey
duchess
kent
oman
booking
cruises
gatt
six-hour
statoil
hughes
ham
pharmaceuticals
smithkline
beecham
medica
mid-session
noon-hour
stefan
edberg
volkov
kafelnikov
leaking
pti
hercegovina
warring
liverpool
wembley
clubs
pt
gems
ira
sectarian
lira
three-point
waigel
six-year-old
toddler
bulger
lisa
presley
assessing
hijacker
reverts
nawaz
higher-than-expected
mclaren
coulthard
birdies
ernie
els
bernhard
langer
nedbank
no.
dzhokhar
dudayev
mitchell
rwandans
terrorising
harassing
bookmakers
pows
hanson
srna
leighton
skopje
ariane
arianespace
resource
wimbledon
hard-man
vinnie
call-up
qualifier
cardiff
welsh
pro-iranian
gro
harlem
brundtland
norwegians
buckingham
ecus
dancer
aston
compulsory
kinkel
densely
bogota
merson
wolfsburg
ernesto
zedillo
prost
yasushi
akashi
lyonnais
midfielder
townsend
alija
izetbegovic
respectively
normalizing
secessionists
krajina
chernobyl
coffers
inter
restoration
kigali
sfa
partick
thistle
downhill
deportivo
coruna
laments
israeli-syrian
restraining
pds
ex-communists
hunger-striking
jean-bertrand
aristide
policing
padraig
bihac
hina
bastia
one-match
creditors
bcci
pharmacists
condom
beth
two-match
frederic
#,###,###
marta
seven-under
pga-lpga
spaniard
diana
charities
ortega
cardiac
sandinista
juventus
quarter-final
three-time
medalist
chairing
bukavu
rafic
tenders
supermodel
cindy
hegemony
nfl
pga
finale
scottsdale
scorpions
fis
nikkei
##,###.##
assailant
flesh-eating
bowe
nhl
sunken
largest-ever
trophy
congestion
###-million-dollar
mekong
samoa
forcibly
deports
bougainville
png
andhra
pradesh
rioted
bandung
touchdowns
vikings
textile
kono
handout
aborigines
adjusted
favourable
ratifying
uruguay
violence-plagued
karachi
singapore-based
inc
fininvest
spokewoman
trafficker
cartels
sicily
calabria
kingpin
scoreboard
bradman
crawley
thrilling
wicket
doping
young-sam
embryos
nafta
match-rigging
scam
saab
descend
ramp
organised
occupants
derailed
waterloo
architects
yunnan
elephants
tusks
firearms
trygg-hansa
birdie
###m
athletics
sher
bahadur
deuba
molesting
enforce
no-fly
one-month
waca
ems
warrington
rugby
davies
broncos
kangaroos
joycelyn
###-yen
wolves
feyenoord
beck
preston
ajax
rotterdam
quarter-finals
three-member
mia
ici
warwick
spearhead
alfa
romeo
solidere
willy
claes
unprofor
extort
anarchists
franjo
tomba
flamboyant
brittan
josef
stuttgart
rump
confederation
swiss-swedish
asea
boveri
abb
fergie
stretched
strokes
purse
accelerating
tyson
gibson
erotic
mombasa
shipwreck
mcdonalds
groundwork
peng
briefs
mirroring
footsie
#,###.#
swindling
mussa
footballers
renewable
south-eastern
nan
sells
educated
roadblock
chissano
maputo
lloyd
bentsen
five-nation
tonne
norilsk
replacements
non-us
sino-british
larsson
jackie
organising
wraps
skier
lindh
rails
derailment
hooded
seahawks
abidjan
cathedral
masse
secede
gamez
midway
hogg
woolsey
shalikashvili
andes
anti-drug
discourage
mickey
kantor
benson
hedges
quadrangular
kingsmead
partition
warlord
geagea
heidi
madam
celebrities
salinas
germain
pacesetters
nantes
windsor
reiterating
rejoin
embryo
sprint
###-metre
skating
deng
xiaoping
emomali
rakhmonov
pertamina
counter-intelligence
obsolete
cannabis
legalisation
yuan
pro-kurdish
sprayed
replying
mti
waive
kepco
exemption
anti-mafia
giovanni
falcone
lemond
triple
batsmen
spinners
nagorno-karabakh
anti-narcotics
kilograms
hauls
raking
moslems
disarmed
lincoln
payout
snipers
consulates
liquidate
nihon
keizai
shimbun
cebu
jonas
bjorkman
invincible
mujahedeen
stampeded
slalom
bowler
kiwis
taslima
nasreen
fundamentalists
blackburn
rovers
yachtswoman
isabelle
autissier
boc
borussia
dortmund
karlheinz
werder
bremen
bundesliga
tanjug
twenty-three
shaath
israeli-plo
chief-of-staff
lima
non-league
scalp
fa
giant-killing
wigan
paolo
eder
super-g
teddy
sheringham
tottenham
gerry
sixteen
peruvians
arming
fronts
super-giant
haris
silajdzic
naguib
mahfouz
matches
three-times
wbc
rugged
argentinian
marcelo
dominguez
amateur
champ
marseille
unbeaten
owens
usa
perth
ansar
complexes
mutiny
balladur
bdr
gravely
peugeot
adams
lusaka
luanda
unheralded
outsider
cricketers
sweat
ichiro
skater
spiegel
archeological
money-spinning
rifkind
eintracht
ghanaian
okocha
maurizio
trapping
evacuees
scorecard
hiatus
reynolds
finalized
vetoing
bantamweight
rightwing
targetted
tornadoes
overthrown
slave
liquidated
turin
fiorentina
addis
ababa
meles
zenawi
minibus
maintenance
snuff
standings
convoys
nail
nationalists
invade
incompetent
dc-##
gianluca
emphatic
parma
##-#
fikret
abdic
velika
kladusa
witchhunt
romp
belonged
app
ibn
al-thani
qna
mwinyi
dissolves
csce
beefing
moslem-croat
sinclair
relegation
qpr
mercenaries
solomon
solomons
mayoral
run-off
minya
clocked
zeller-baehler
clans
departed
worms
preferring
earners
seasonally
anz
kuomintang
tuvalu
distributors
berth
kirk
gould
ukranian
anti-tobacco
futures-linked
co-operation
hovered
hovers
firmness
azharuddin
bowlers
overs
forza
italia
splinter
waugh
day-night
steffi
six-week
adjournment
offical
razing
ayodhya
asyut
m#
visions
lower-than-expected
troublespot
yuletide
moshood
abiola
hashemi
rafsanjani
armaments
brewer
diversification
limited-overs
tudjman
motorway
pile-up
pillar
weu
singling
hitches
hitch
amphetamines
kwazulu-natal
herzog
non-european
maid
pharmacia
repayment
swindle
militiaman
brazzaville
sampras
illegals
peace-keeping
defrocked
pfp
namibian
nujoma
olympique
cska
citizenship
pavel
grachev
mishandling
enquiry
fianna
mohair
di
lme
savimbi
freak
midlands
charts
mitterrand
derivatives
ex-army
ahold
guilders
nintendo
counterfeiting
credito
quayle
stich
coasts
parisian
facelift
collor
mello
spokesperson
ecomog
sani
abacha
adriatic
umberto
bossi
liquor
lusa
forgot
royle
everton
leeds
shake-up
levee
webber
inflammation
jeopardize
normalize
ingvar
natwest
rent
locomotive
one-dayer
enterprises
guangdong
labourers
fujitsu
subsidiaries
backpacker
conservation
decimated
un-sponsored
cosmetic
singaporean
accomplice
coupon
craze
zealots
moderately
consignment
tajik-afghan
batsman
infecting
aids-infected
earthquakes
anti-personnel
moldovan
moldova
dos
snubs
aerospatiale
kris
reaffirming
mircea
asmara
armenian
mormon
sino-us
eddie
sharia
essen
bao
sails
portillo
adjoining
lent
jensen
manslaughter
dresdner
pre-christmas
shevardnadze
georgians
prudential
nec
leasing
tan
sting
fraudulent
burhanuddin
rabbani
##th-century
razed
venables
ponder
rename
federalism
renewing
pre-independence
registrations
marshall
englishman
gregory
ipswich
strikers
cole
sutton
robbie
fowler
tueday
birmingham
blues
jumper
occupies
hanged
kayhan
winger
filming
shahpur
bakhtiar
snubbed
grudge
exchequer
clarke
vat
democratically
bettino
craxi
camel
principality
andorra
repeats
correcting
slug
parizeau
mani
fina
rainier
bahrain
lords
uefa
injury-time
flop
federalist
changeover
extraditing
discharged
##-run
bowling
liason
evasion
embraer
cartel
diane
modahl
dour
abandons
commons
quarterback
bilbao
cloning
cloned
validity
maori
bolger
reigning
repayments
exemptions
fiji
tit-for-tat
jericho
next-generation
##-megabit
dynamic
dram
bil
csf
arsonists
ramos
observation
tuzla
repurchase
disgust
junren
paceman
sergi
bruguera
jansher
bombay
sevens
bookies
humiliating
disarming
swoop
fraser
wallaby
dwyer
horan
anton
organise
underlining
petersen
anfield
auxiliary
europol
swipe
medley
sadc
curfew
manila-based
carlton
duty-free
brews
record-breaker
duncan
ferguson
glasgow
worshippers
cal
noel
sanction
revising
upward
impressionist
gogh
chandrika
kumaratunga
instigating
wole
soyinka
saro-wiwa
inter-clan
courtyard
unseeded
del
harris
seed
textiles
shekel
crossroads
mcghee
sheffield
bassett
unrwa
romped
bae
gec
shipbuilders
groundswell
maxwell
maltese
progressing
eib
poles
telecommunication
abdallah
cali
agassi
finals
golfers
lpga
pairs
sportswear
seles
apparel
knifed
prolonging
knot
#\/#
hull
dane
foday
sankoh
biodiversity
spartak
eyewitnesses
tory
president-elect
sanguinetti
bolivar
daniele
konrad
tories
coca
depicting
yorkshire
caldera
authorizing
rodman
comcast
bayern
repealed
mou
mosquito-borne
stuart
auckland
iain
infiltrators
performances
bandar
sumatra
anti-vice
cohabitation
seaman
binge
vanuatu
twenty-seven
gunpowder
hunan
cows
executes
phillips
bohai
pearl
retrieve
resembling
terminally
mariah
carey
post-independence
clippers
penal
tack
bloodletting
reverend
diary
coffin
##-year-long
devon
hashem
sg
warburg
authorises
stoned
hainan
suha
bonnet
windscreen
gag
nine-year-old
balcony
gauteng
bskyb
pence
hurled
damon
runner-up
schumacher
rewarded
secures
cracked
steers
lay-off
jean-luc
dehaene
keepers
prevents
converging
norwich
ashley
franco-british
alsthom
tube
ulster
chaudhry
hussain
rearrested
gustaf
elisabeth
aircraft-carrier
raith
hermann
unsold
workmen
trafalgar
tight-lipped
queens
matched
#,###-year-old
smoker
belfast
rabbi
weiss
obscenity
ipanema
worrying
bulletin
beatrix
henkel
kgaa
factional
five-week-old
accra
picket
fulfil
yussef
alexandria
sexy
guerilla
renamo
miracles
grobbelaar
mostar
karel
att
shareholdings
lowly
rooster
us-run
ivanisevic
burglars
#,###-point
sperm
whales
parker-bowles
mistress
camilla
islanders
washes
aggregate
oleg
katja
seizinger
constabulary
hugh
##,###,###
all-star
naira
baa#
crenshaw
mickelson
truant
nuclear-powered
newport
shipyard
disregard
sliding
elliott
stab
karamay
xinjiang
waterfront
banque
indosuez
laotian
vientiane
calcutta
waterhouse
joey
eroded
rupert
swear
malibu
villas
aru
professionalism
empty-handed
tomiichi
murayama
dmz
kamuzu
cis
jiangsu
breakout
piraeus
intifada
paralysing
sncf
eliminating
staggered
chunnel
beset
brescia
troika
soraya
ansari
anarchist
sumatran
rhinoceros
rhinos
defrauding
debtors
eastwards
savaged
skandia
christie
vancouver
lax
liquid
spills
proxy
badminton
eliminates
disturbances
recaptured
hotspur
authorizes
fringes
uruguayan
londoners
buster
edwards
wrecking
nurburgring
primarily
fire-fighters
evicted
councillor
protestants
picabo
wed
breuer
yury
gilles
bugging
outlining
ria
al-shara
shara
atr
medallist
one-two
nicklaus
teamed
seven-year
masturbation
blunder
newfoundland
slugger
canseco
ortiz
liabilities
relaxation
properties
guangzhou
nasal
communique
sighted
lao
kashmiri
electing
hayden
selectors
unconquered
bild
competitions
##-day-old
iranian-backed
sla
spratlys
jammu
fog
tasmanian
environmentalist
moviegoers
vandalised
constituent
adana
semi-official
pasqua
defamation
defy
lieutenant-general
franco-italian
drug-trafficking
oppression
al-attiya
forging
trounce
shelled
shearer
mohsen
serb-held
exhumation
explorers
archeologists
playmaker
maradona
moro
solemn
six-million-dollar
carbomb
pacifist
coventry
dons
laudrup
superb
kilmarnock
anti-eu
anti-castro
seamen
stasi
pacifists
lightweight
wba
tomb
mummy
nikolai
brigitte
bardot
midair
noise
foreign-funded
vanunu
anderson
career-best
eubank
wbo
super-middleweight
lopez
tareq
###-###
dalian
laurie
mains
ammar
shane
self-declared
joint-venture
callaghan
giulio
andreotti
lobbies
forges
ingush
reintegration
ortlieb
kyrgyzstan
egypt-libya
retaining
hydroelectric
spa
signalled
niyazov
dc
motema
breweries
just-concluded
accidental
entities
xenophobic
anti-semitic
reunited
fdp
benedetti
reelection
mahindra
andreas
papandreou
un-administered
#-##
valentine
strasser
ecological
ecologist
meciar
goalless
reds
luton
hinting
honolulu
snatch
blanks
kelly
inter-arab
loves
laughs
one-gigabit
chart
max
zeitung
sculptor
franc
optus
palmeiras
escorts
bayerische
zairean
collaborator
terminals
china-based
achieves
manufactured
cso
kovac
thick
three-year-old
misuse
ghazi
bse
prohibition
imposes
berti
vogts
wields
ultranationalist
day-old
tax-free
all-rounder
ton
implored
french-made
netted
fish
piranhas
emir
inter-ethnic
allocates
bath
##-man
taha
yassin
wiesbaden
one-million-dollar
sikh
marrying
provisionally
onlookers
fitted
pentium
leotard
tat
liberte
steals
arrears
mibtel
himalayan
himalayas
burmese
poppy
rangoon
burma
brothel
####gmt
copyright
authoritative
pflp
dflp
kmart
liamine
zeroual
eradicated
aps
rejoined
educational
departs
warm-up
shuns
highbury
normalise
defective
unfinished
bn
premiers
parliaments
patten
hongkong
botham
processed
sugar
us-funded
kobe
finalizing
motorbikes
bicycles
ziana
kmt
gunship
rearguard
rotation
firecrackers
grains
pinay
willis
samurai
girlfriend
al-hayat
commanding
underpinned
degussa
digs
servicemen
usair
dornier
dasa
thwarting
forty
defect
al-akhbar
liege
forearm
belgians
gorilla
jamaa
concealed
lara
unhappy
redeploy
squat
squatter
centrists
spratly
css
sa
sophia
nominal
ba
caledonian
anti-terrorism
antiques
reuters
assidomaen
writes
hormone
destabilising
tram
npc
lorenzo
repo
crowe
agf
privatized
transporters
rennes
guerillas
rupturing
unauthorized
qualifying
brittany
fetches
paratroopers
courier
todd
introducing
antalya
detaining
decrees
fur
outokumpu
kengo
dondo
backward
nigel
mansell
five-wicket
stroll
amphibious
cp
zulu
zwelithini
trounced
organs
rptn
wait-and-see
lead-up
daimler-benz
microelectronics
pro-israeli
yugo
gaffe-prone
flouted
quarantine
#.#-metre
platinum
wedneday
stronger-than-expected
gorbachev
mobilizing
disgraced
frontrunner
renegades
wartorn
pesetas
peseta
gough
bucknor
officiate
conchita
hopman
bathing
scupper
quarter-finalists
nc
auxerre
muoi
banner
batons
sever
litany
mac
gilts
nasrallah
kosher
antiquities
yi
haifa
eilat
aqaba
arantxa
sanchez
vicario
itf
tripled
welding
williams-renault
antony
basement
thrash
combatting
croat-moslem
zambian
notched
cloak
banja
bailey
hydrogen
budgeted
duff
strugglers
u-turn
war-risk
gascoigne
graffiti
swastikas
daubed
gijon
pickering
conform
embracing
stinger
crete
cardinals
four-year
phillies
frederico
newsagency
stumble
evander
holyfield
title-holder
turner
diphtheria
syndrome
coolly
narita
enforced
itar
tass
couples
nokia
scotch
cream
plc
cheap
#.#-#
midfield
plasma
wicketkeeper
richardson
stabilises
mitsubishi
manama
runways
orly
rescheduled
bruton
loyalist
paramilitaries
weaker-than-expected
gunbattles
kse
toe
sleepy
railtrack
exaggerated
eriksson
matra
armistice
rita
suicides
european-based
ethylene
brake
fluid
composite
eight-day
moslem-led
jungle
commoner
valid
###-#
dismembered
horrifying
sabena
trafford
nottingham
revitalised
chop
gerard
cic
gan
markus
overtures
fray
flick
franco-german
entente
co-operate
firebombs
arch-rivals
pittsburgh
pinto
three-shot
blistering
adminstration
lillee
##ers
ssangyong
unavoidable
ipr
formosa
plastics
walker
irregular
dhl
afrique
togolese
lome
gnassingbe
eyadema
arbitrage
administering
keeper
lehmann
doctoring
steiner
shoulder
mengistu
mariam
dudley
by-election
motorist
hit-and-run
stockpile
pontiff
buddhists
philips
nv
discs
storing
du
al-ahram
warehouse
interruption
registering
irian
jaya
fly-half
gareth
twickenham
creditor
lockheed
jealous
harbors
eats
rai
franz
beckenbauer
banesto
forgery
dee
jean-michel
saive
consultative
speeded
carolos
papoulias
coke
sub-continent
unravel
kok
resignations
liberalize
hostel
nieminen
bo
iaaf
owen
thorvald
shrugs
vaccines
##-under-par
pondering
bullet-proof
saatchi
nun
paraguay
mercosur
arsonist
streamlining
rodney
eyles
brett
garment
bomb-making
beverage
spouses
scams
issa
al-khalifa
bahraini
hargeisa
somaliland
egal
star-studded
khiam
waqar
younis
disarm
merv
thigh
zoran
gatien
##-country
gunshots
mansion
crisis-torn
fortnight
sella
gutsy
magnificent
mighty
airman
warplane
execute
peasant
all-clear
paisley
amal
israeli-backed
embarks
bulgarians
qe#
non-military
buoyant
preceding
aussies
nanny
essex
left-arm
seamer
inexperienced
jean-philippe
sulawesi
cripples
grunigen
inn
bahrainis
grey
flyweight
vincenzo
yerevan
mediated
souness
vexed
flats
genoa
sanath
jayasuriya
slaughtered
graeme
unhurt
hoddle
inspire
stamford
asylum-seekers
jibril
vreni
schneider
pernilla
wiberg
pip
murdoch
hallucinogenic
dining
kalimantan
furniture
panmunjom
blackout
arising
excessive
mini-bus
overcrowding
madness
ezer
weizman
armies
outpace
pierce
toray
manufacture
rolls-royce
symbols
bmw
symonds
fredrick
chiluba
shenzhen
bubonic
plague
scoffs
match-winning
tubes
price-fixing
insulted
tribune
jiji
upturn
corazon
aquino
lover
buddhism
converts
lodging
pattaya
policy-setting
yelena
bonner
convertible
skittle
##-strong
british-based
punjab
distanced
manipur
conde
castellon
fighter-bombers
disposal
hristo
stoichkov
indices
shorter
projection
audit
racket
injure
plotters
besieging
cessation
court-martialed
mccurry
double-murder
higgins
tissier
southampton
man-made
ozone
mogul
malls
sumitomo
bloodbath
transforming
loss-making
blazing
polanski
hue
insider
coaching
under-##
pearce
ince
racially
abusive
machine-gun
bouygues
countrywide
dull
tse
rib
stan
charlton
andras
toads
merck
monsanto
watered-down
lendl
pyrenees
evict
evicting
burundian
bujumbura
mortars
cage
tab
sol
ditching
lips
branko
crvenkovski
mandated
kiro
gligorov
bull
invalid
pre-holiday
drifts
slums
carrefour
proliferation
barings
circulate
ejected
samar
defaulters
christophe
auguin
madeira
genting
gaming
goh
tong
keating
finishes
cancer-stricken
adjourns
entrepreneur
alarms
il-sung
al-azhar
southernmost
sanya
airlift
hemorrhagic
##.###
marubeni
rhodes
alec
anita
wachter
dockers
pins
sabina
#min
voluntary
caviar
piste
wiping
rebuffs
yachting
plotter
banditry
brewery
number-two
teachings
rusk
baden-wuerttemberg
runup
father-in-law
johnnie
golfer
granic
ex-us
trans-atlantic
##-point
aces
reviewed
banca
radiation
liberalise
standstill
beefed-up
pele
bollore
ripper
preussag
specializing
group-share
realities
wafa
knife-wielding
greek-cypriot
cna
co-chairman
heirs
huston
colored
battalions
suppress
ndabaningi
sithole
rain-affected
tricks
firebomb
malian
posh
plaza
sultan
north-eastern
deserted
aviator
trader
oilfield
anti-graft
poachers
dictionary
insulting
luzon
humberto
isuzu
sega
requesting
clamped
run-up
gavaskar
larger-than-expected
squarely
puppet
respectable
lunch-time
schengen
ak-##
underdogs
saarc
firebombing
ilie
steaua
popocatepetl
cunard
irate
sit-in
valderrama
orient
maroni
swedish-swiss
valued
switching
unbeatable
satanic
aramco
claus
skate
tacked
sikhs
indira
gandhi
varese
defraud
war-shattered
seafront
multimillion-dollar
sanders
ash
pulp
sewage
earmarks
arsenals
kamikaze
##km
consolidating
inefficiency
stabilised
glickman
pall
vanilla
zhou
privatize
twa
pay-television
swiss-based
airforce
f-##s
owes
fijian
de-facto
no-show
illingworth
luc
##-foot
aground
ex-mp
nicolae
featuring
toilets
much-delayed
high-flying
shaanxi
xiamen
boiler
sworn-in
deportees
commandeered
nigerians
encircled
tear-gas
bethlehem
tenth
#,###-kilometre
#,###-mile
schering
hibernian
goalkeeper
goram
nazareth
mahdi
farah
aidid
grouped
squadron
agony
dislocated
falklands
dakar
densely-populated
juvenile
infiltration
waterways
vo
kiet
tung
theology
qom
overturns
voa
miti
sabc
poacher
second-hand
sumo
futuna
half-centuries
claudia
hated
seven-day
##-month-old
argun
caning
guinean
conakry
akhbar
gunners
salutes
reciprocal
romario
anti-arab
duran
public-sector
sali
berisha
soured
nativity
basilica
prays
morphine
gia
slay
arie
unwelcome
lahore
motorbike
hiking
dhabi
stateless
kuna
primate
deploring
religions
knockout
electors
norfolk
offficials
gangway
mexicans
gustavo
flipped
authorized
marignane
spoiled
vice-captain
taboo
index-linked
triumphant
speeds
kpa
britian
begging
spinning
rutherford
liaoning
polluting
depicted
karim
mozambicans
kruger
showpiece
tunnels
shanty
lunchtime
corsican
###-day
islamiyya
baruch
patriarchs
printed
armenians
meals
climbers
top-of-the-table
freetown
leonean
libreville
forty-two
murderers
emigrate
adidas
inflated
helens
qaboos
ona
violently
handgun
flesh
skids
arraignment
karl
opting
fractionally
bosson
shanxi
malawian
##s
behead
self-ruled
eclipsed
capriati
wildcard
martina
hingis
light-water
lunar
blazed
hilltop
roh
tae-woo
neo-nazis
pairing
thomson
morrison
bowled
right-hand
sisulu
tizi-ouzou
tao
istat
stabs
realtors
thirty-two
logs
receipts
torpedo
trainee
unpleasant
newlands
czar
desecrated
cemetary
baden
lars
bohinen
nag
unjustified
assisted
soybean
fuji
subaru
mitsukoshi
implements
seven-year-old
half-way
congested
introduces
frenchmen
climax
syrian-backed
orphanage
pacemen
fleming
malik
inzamam
haq
four-nation
mehdi
wajed
zhirinovsky
qian
qichen
scandinavia
mancini
und
flak
creeps
elf
aquitaine
antelope
bologna
ayrton
senna
marino
#st
arbil
sternly
clones
uneven
villiers
snowfall
fare
spilling
colts
faulk
riley
inhuman
tussle
kallis
queue
sharpe
fraction
mini-summit
cowboy
orleans
saints
leniency
stabilizes
soda
scouring
minerals
repulsed
hattrick
panda
hides
levon
short-course
jvc
leg-spinner
hardcourt
bedouin
industrie
burglary
constantine
malay
eaten
twenty-nine
reminds
co-premier
siem
forecasting
martti
ahtisaari
hochtief
philipp
holzmann
disruptive
exams
iraq-kuwait
edgy
resettle
societe
generale
cabinda
saudia
denials
morgue
turkeys
scottie
pippen
castles
cleaning
haitians
blasphemy
pearson
cliff
manning
trinidad
tobago
unc
gambia
gambian
wastes
eviction
fletcher
afonso
dhlakama
unsteady
annualised
eight-wicket
kirsten
trainer
urska
hrovat
cheques
pablo
concession
continuity
nhk
eight-year
rooms
mid-day
milla
commemorations
criticise
liberians
deir
pistons
peoples
rebirth
knife-edge
nayef
overheated
handsets
luther
certification
deficiency
tremors
five-star
eradicating
seismological
abortive
mistrust
nanjing
miner
berber
kabylie
dushanbe
demobilisation
justin
renovate
plebiscite
jean-louis
severest
hilton
non-stop
round-the-world
amounting
alejandro
cedric
ceballos
lakers
suns
grind
saluted
veterinarians
pets
toast
packers
ronaldo
dolphins
beatle
marrow
transplant
leukemia
schemes
yukos
khodorkovsky
woodman
consular
injury-plagued
pietrus
sprained
ankle
slovakian
karnataka
m.a.
burundians
three-stroke
medallists
volleyball
abductors
qorei
pascal
disneyland
us-installed
climbdown
barbados
ponting
triangular
arsene
wenger
springbok
typhoid
muscat
sultanate
henman
federer
mooted
flemington
okinawa
tenor
luciano
pavarotti
modena
samoan
clung
wallabies
ecowas
rafiq
nominates
hoshyar
zebari
bashir
garang
manpower
iranian-american
aip
woodbridge
sv
leverkusen
linke
swansong
martyn
spl
palaces
ashore
plunder
fini
fascism
kazan
newly-crowned
saud
al-faisal
springboks
natal
valentino
rossi
motogp
gyude
jumpstart
overseer
bremer
lagoon
gers
disrespectful
vfb
sc
bordon
groin
deisler
lyon
simulated
miserable
masterclass
bolton
eggs
juninho
mutu
second-half
jockey
sean
wolverhampton
wanderers
robson
three-way
crucifix
erected
fms
wta
top-seeded
viduka
thierry
elland
retief
goosen
vijay
long-held
earner
flanker
niekerk
achilles
lemieux
penguins
boao
yagudin
four-time
ruddock
hooker
burke
anastasia
myskina
amelie
mauresmo
pervez
musharraf
livestock
pinheiro
military-run
gorge
tri-series
hindu-muslim
riot-torn
gujarat
servant
enlarged
ranked
annika
sorenstam
allardyce
inspirational
keegan
bust-up
anelka
handlers
wildcat
clive
woodward
###-##
insensitive
roadmap
#hr
##min
##sec
casey
###cc
triumphed
motorcycling
poggiali
motorcycle
aprilia
smallpox
triumphs
womens
exciting
juniors
kemal
consecration
schism
almsick
gp
ferrari
donkeys
wasps
ottmar
hitzfeld
schalke
shankar
filippo
inzaghi
serginho
bruges
heidfeld
sauber
fredrik
##-under
raul
warmed
three-test
stride
mystic
okayo
unofficial
schroeder
lel
hard-fought
inheritance
yamaha
honda
ounces
florence
fallujah
spoof
roberts
serbia-montenegro
scorers
chanda
season-ending
volley
marco
serie
title-holders
aurora
scots
windies
houllier
powell
tahiti
frenchwoman
beefed
stainless
featureless
yulon
airfields
gregan
trademark
tcl
televisions
b-share
a-shares
jemaah
islamiyah
ji
antics
virus-stricken
post-taliban
morshed
straeuli
back-row
##-pct
zhejiang
goats
camels
qalqilya
backlog
cnooc
ka-shing
hutchison
whampoa
hansen
masood
blight
telkom
first-class
prelate
anglicans
marksman
marcio
amoroso
ko
stoppages
diocese
provokes
communion
churchmen
psychologically
medgyessy
hirondelle
tandoor
schoolgirls
holly
jessica
chapman
cooperated
value-added
vouchers
rumours
third-quarter
montoya
anti-money
seizures
yaounde
overfly
loya
jirga
feliciano
dfb
four-match
generali
overtakes
behari
bryan
luxurious
three-match
stadiums
dagestan
franco-us
staunchly
snatches
roundly
drive-by
warlords
nudged
admissions
pips
one-off
fnl
lyonnaise
#.#-bln-euro
telia
spam
ecstasy
schoolgirl
yorke
variations
sars
lovers
rolandas
paksas
rupees
adriano
enshrining
telemarketing
registry
buffer
kfor
flourish
consultancy
abducting
notches
gerrit
zalm
conductor
philharmonic
anti-saddam
eichel
aegean
nguema
provocations
mueller
daimlerchrysler
moyes
ablaze
beckham
zinedine
zidane
anti-nuclear
pummelled
azeri
hornets
scorer
grossman
flyhalf
larkham
campo
nikkei-###
hartson
anderlecht
parkhead
laporte
sprang
full-strength
charvis
top-heavy
hedging
us-trained
pldt
stellar
makybe
diva
racecourse
usd
browns
rusher
well-heeled
eclipse
mare
mcgrath
six-way
lashkar-e-taiba
engineered
memphis
grizzlies
wagner
karbala
legalising
lleyton
hewitt
philippoussis
russian-born
workshop
preemptive
domenico
gucci
ppr
poorer
shwe
fresenius
half-yearly
rt
composition
dressing
kone
komatsu
melville
selects
khin
nyunt
rosy
shipbuilder
hdw
skid
arad
crocodile
sensation
wayward
hk
cristiano
resting
rolf
ptt
hardliners
heath
ana
palacio
legalise
indosat
opel
zeng
fit-again
harmison
sime
cpo
unsustainable
darby
ivica
racan
full-year
aquarium
enveloped
trucker
mick
jagger
rockers
seeker
fernandes
circumcision
anil
kumble
spice
indian-administered
dictatorial
matti
jean-pierre
raffarin
statelet
kasyanov
ills
forty-three
ranil
wickremesinghe
scolded
tyco
couchepin
olivetti
o'leary
darius
vassell
qualities
shirin
ebadi
clarifications
paintings
collector
calzaghe
light-heavyweight
kyrgyz
humiliation
horns
israeli-owned
ponte
warcrimes
apartments
stumps
sputtered
nasdaq
dugarry
gillette
razors
mustapha
hadji
ottoman
zivkovic
lancashire
ramiro
lopes
lapses
mid-december
gretzky
unearth
destiny
christianity
toni
khurshid
kasuri
hotspot
trimble
ceausescu
taibu
debutant
boro
syrian-born
harrowing
parreira
qualifiers
hernan
celta
vigo
plagues
peretz
lualua
wolfowitz
fatalities
boutique
efrain
rios
montt
pre-war
decade-long
triples
demolition
kaka
fc
toughness
multibillion-dollar
lamy
zhaoxing
thrashers
ligaments
panathinaikos
spiderman
##-metre
roff
tuqiri
mortlock
recapture
mariners
repel
leger
bi-annual
sprain
backpackers
russia-eu
referees
ref
henri
konan
bedie
grievances
o'sullivan
costello
catt
beverages
confederate
##.##-percent
necklace
liwei
davide
irwin
man-eating
reptiles
croc
mauling
kuan
wise
half-day
rotational
tranche
scrum-half
dissuade
dallaglio
neil
medium-range
sudden-death
glitter
loggers
rep
adidas-salomon
reintroduced
record-high
moo-hyun
oxfam
chopped
extravaganza
tang
xue
shen
hongbo
gabba
hoodoo
placid
matrix
sci-fi
rakyat
himachal
breather
mayors
casinos
reservist
sergeant
supachai
panitchpakdi
huber
penang
looters
ex-yukos
geoff
hoon
nine-day
wcm
sync
huntley
habit
agip
thunderstorms
rwe
refrained
moqtada
sadr
kazakh
vieira
anti-taliban
shah
deteriorated
pupil
perugia
saadi
nandrolone
coni
mihajlovic
grilled
reshuffles
khouna
haidallah
maaouiya
taya
accelerates
joschka
janica
kostelic
war-era
foils
pahad
quentin
tarantino
theaters
viruses
malicious
gala
bratislava
pavol
rusko
hiv\/aids
ak
scolari
benfica
friendlies
un-run
accor
ottawa
enlarging
drawings
discus
birthplace
toppmoller
combing
baqubah
farmworkers
uta
##-minute
giuliano
puglia
tremor
languished
vegetables
gardens
armitage
pesticide
insolvency
extradites
cisco
wmd
halliburton
overcharging
sociedad
injury-hit
juve
semiconductors
lokomotiv
racism
oakland
tributes
post-september
jonny
wilkinson
pretending
monkeys
snapshot
lag
roddick
top-ranked
sar
afl-cio
klimt
hodgson
poaching
officals
cod
#g
bertie
ahern
mazda
fabien
swifter
oversubscribed
hanan
ashrawi
tabs
carlyle
koram
palestinan
nam
tran
duc
luong
commuted
clemency
buy-back
bashkortostan
frosty
falungong
censors
tales
nld
three-set
indy
indy-car
reunions
cincinnati
chandler
mallard
zealands
first-quarter
###s
marlins
singtel
lebron
bhutan
nathan
zheng
shandong
rioters
allianz
clijsters
dementieva
signalling
chairwoman
accomplices
think-tank
trims
fog-bound
razali
honiara
rahul
dravid
bottom-line
writedown
materialise
pauline
six-party
rate-setting
lagardere
aero
negara
fragility
tui
bookings
year-earlier
ndjamena
motorcycles
fashanu
inconsistent
gillespie
anna
latif
moin
probables
monti
deregulation
tie-ups
exposing
hasan
worship
kosovar
german-made
tolerated
nfa
rudi
voller
nowotny
tnt
letizia
divorcee
teresa
sclerosis
lancet
genetically
arrogance
hatfield
re-opening
greek-turkish
hinds
urine
fairytale
siberian
concerts
####\/##
greening
tomas
long-divided
stopovers
sonia
ringleaders
freeman
goat
long-time
mano
queiroz
swisscom
fended
kurdish-language
rania
saez
bertelsmann
makelele
santini
comparable
streamline
swapping
reputedly
dynamo
###-mile
basra
british-controlled
dermot
kadyrov
adherence
flout
unmoved
iran-iraq
#.##-percent
o'shea
keane
kluivert
compensated
rumsfeld
seve
ballesteros
overturning
recurring
paddy
ashdown
ramadi
better-than-expected
liberalising
aborigine
bernd
stange
policymaker
mcmillan
styris
four-wicket
ru-###
shamil
titanic
weddings
schreiber
soyuz
guiana
protein
figc
unseat
bordeaux
paphos
pedophile
petter
solberg
markko
#rd
regiment
zacarias
moussaoui
cassano
hajduk
magpies
basel
smuggler
suvs
pick-up
howell
minardi
stoddart
cut-price
polisario
phelps
prolific
slaves
vote-rigging
ipo
cosmetics
round-robin
spinal
pandas
mai
zoo
kiribati
wafer
tsmc
surfing
diploma
flintoff
giles
umc
bestowed
akhtar
semi-privatised
kong-listed
nicole
karstadtquelle
stockmarket
justifies
sainz
regrettable
abuja
comdirect
two-stroke
mizuno
all-round
labels
talisman
experimental
importation
logistics
cools
jerome
corey
follow-on
heavier
ditched
fiancee
vivendi
regains
overhauling
corresponding
rack
sebastien
loeb
anti-war
demos
mercedes-benz
german-us
cherie
tarom
fulham
copycat
overgrown
olusegun
obasanjo
enyimba
hannover
recipient
enlarges
bolshevik
lenin
mausoleum
censorship
bundestag
greens
pedophilia
musical
egeland
rivalries
baluchistan
thales
aeronautic
upped
ante
dioceses
justifying
falter
quetta
leipzig
asma
khodr
bangguo
consults
westwood
esa
seven-member
aidan
o'brien
makeup
enron
minster
aleksander
kwasniewski
mer
retake
oval
edgbaston
tackled
leszek
shahab-#
catania
do-or-die
warwickshire
anaheim
giffin
doug
cross-checking
canucks
henrik
giggs
wrist
betrayal
liberty
balshaw
buoy
harrington
six-time
hydro-electric
journalism
justine
henin-hardenne
###-pound
energy-starved
mkapa
improvised
abolishing
welt
romanians
#,###-strong
berated
opium
cultivation
nagyova
sodium
snatching
giteau
quiz
rowhani
derby
isu
balata
shaukat
paired
sow
substitutes
complicity
wizard
spanning
stewards
freddie
ljungberg
ensured
sending-off
svensson
ten-man
dunfermline
feasibility
portsmouth
empoli
sampdoria
winless
nestor
svetozar
marovic
lions
two-million-dollar
succumb
boatload
stefano
one-stroke
sizzling
cotonsport
garoua
caf
two-goal
turki
morley
strachan
dues
ftaa
atp
middleweight
ibf
jr
dai
gansu
peiris
annette
stringent
badly-needed
day-long
madras
afdb
al-turabi
scot
hurl
clerical
supersonic
anti-ship
disqualified
kharazi
ravalomanana
madagascan
bevan
grabbing
jeremy
sourav
ganguly
guinness
olivier
maso
junichiro
koizumi
ldp
citroen
constructors
rau
three-party
maltreatment
self-exiled
feminist
wobbly
pires
arabian
lal
advani
concorde
austin
healey
josh
wwi
terrorized
pelted
niki
lauda
heartlands
netting
caches
mobilised
huddersfield
claudio
ranieri
panthers
keenan
dado
prso
ajaccio
in-form
feted
audi
mans
endurance
seville
drubbing
altered
destabilizing
three-million-dollar
ramirez
alvaro
uribe
delights
cashed
controversially
cullen
communal
flotation
g##
red-hot
lecturers
trilogy
liberalizing
sayyaf
infineon
kpn
vu
authorites
interrogating
rapporteur
greenpeace
fortum
megawati
sukarnoputri
uninspiring
expatriates
eu-us
non-performing
prefer
carlsberg
rekindled
sparring
sensex
cup-winning
deviant
siberia
drags
genetically-modified
foodstuffs
attorney-general
ronaldinho
downs
everest
novosti
bangabandhu
eccentric
diet
omantel
buries
harcourt
socialite
sparkle
krishna
thirty-four
whirlwind
seven-wicket
yartsev
underestimating
million-euro
separates
aghajari
mikulas
dzurinda
sven-goran
glen
parker
turkish-cypriot
advocaat
ruud
nistelrooy
##.#-billion-euro
##.#-billion-dollar
stylish
cricketer
tendulkar
massoud
barzani
check-up
bathroom
rajiv
lesotho
spied
monrovia
sidesteps
boks
malvo
liga
vitamin
fenerbahce
djorkaeff
undocumented
trickling
kufuor
chogm
insurrection
niamey
cheney
hemispheric
ferrero
nalbandian
extracted
interrupt
short-list
paola
sisters
albeit
horst
koehler
upgrading
upgrades
bahamas
gaston
matsui
ligament
decommissioned
tow
lefthander
five-match
emerton
rot
ecuadorian
mid-atlantic
gutierrez
anti-bush
legionnaires
mel
spoil
layoff
subsidy
mohannad
altercation
vladivostok
interrogate
levies
mahesh
bhupathi
mirnyi
iom
fannie
mae
issuers
fencing
gulbuddin
hekmatyar
accreditation
peg
out-of-court
thyssenkrupp
telephony
nikon
vaile
noose
wendell
kadek
al-nuaimi
two-billion-dollar
dutch\/shell
totalfinaelf
t-online
palestinian-israeli
partnerships
poso
srinath
emigration
recouping
rooney
flu
scouting
se
solzhenitsyn
erwin
azzurri
pakistani-controlled
french-italian
stmicroelectronics
asylum-seeker
eurofighter
compounds
woodgate
inzamam-ul
cries
kuranyi
fabrication
crushes
record-equalling
four-goal
turk
un-islamic
calf
expedition
mars
reunification
amends
dura
harbouring
pretax
suffocated
reiterate
thumping
scholl
gerrard
issing
nottinghamshire
first-team
notts
philanthropist
all-party
tailor
arthritis
hippos
uday
ngozi
okonjo-iweala
oswaldo
communist-ruled
wwf
abn
amro
islamist-rooted
flouting
broadway
lanes
tire
pirelli
conte
blunkett
internationals
sinfield
bowie
toulouse
three-nation
mona
replica
mcdowell
coria
doorstep
citibank
anti-smoking
tevez
geophysical
teodoro
jays
cy
fabrice
santoro
llodra
coin
toledo
probation
coerce
rhino
coalmine
second-string
iverson
wizards
fullback
pudong
#-#\/#
storage
prosiebensat#
us-israeli
soviet-era
outlet
wella
haircare
perfumes
procter
mobilcom
rauf
denktash
nasiriya
reef
whale
edison
mountaineers
tenaga
nasional
carabinieri
guido
###,###-pound
chinnaswamy
zafarullah
jamali
nasiriyah
eels
atb
pcb
schuessel
left-hander
katich
allowances
wavell
reins
repatriating
durao
kirtley
eight-year-old
u#
gil
vicente
backroom
gamesa
mig-##
radars
heavy-handed
terre
blanche
charleroi
dora
rages
omission
shoe
martino
cayenne
dutroux
ictr
corus
buddhas
resounding
riyals
trekkers
focussing
#.#-million-dollar
arc
triomphe
monuments
undertakes
eni
bulawayo
no-nonsense
csfb
half-a-million
akhmed
zakayev
pains
docks
gilchrist
spectre
furyk
figo
#nd
dominicans
ripe
daschle
cable-car
towed
wandering
sven
bioterrorism
widows
demolish
reconvenes
us-eu
##-match
plucky
caricom
jacksonville
dumps
concussion
flyers
cheekbone
bon
tous
rocker
lotto
tulkarem
plushenko
fine-tuning
trophee
lalique
adelaide
devil
bielsa
kenyon
rematch
twins
season-opening
cavaliers
nepartak
financials
unscheduled
yunis
gangster
hideouts
diarrhoea
overtake
motorola
havas
strike-hit
imelda
laid-off
frattini
stash
iea
lay-offs
gyanendra
anti-king
ine
curtis
seven-under-par
taiheiyo
dragoljub
proclaims
hebei
angkor
wat
surrenders
kiss
###,###-euro
kissing
bakheet
bfa
cyclist
epo
languish
thermal
tejan
kabbah
lukoil
rehhagel
degrading
gnomes
chilly
disconnected
synthetic
stam
expenditure
chalabi
invigorate
dreaded
abashidze
discount
ual
likeness
boer
graveyard
jacqueline
ordination
second-highest
giuseppe
pisanu
chess
kasparov
putnam
repay
hots
rainer
schuettler
coronation
gonzalo
lozada
bogey
#-under-par
karrie
webb
blustery
dragons
batter
bengals
cejka
woosnam
wgc
stink
portland
blazers
steadying
telstra
erode
pangolins
molotov
semis
mildly
ai
cairns
floundering
malacca
cdu
schoolboys
wholly-owned
###-dollar
stagnated
brits
three-under-par
butler
solbes
want-away
rivaldo
stade
stifling
insurgency-wracked
firepower
herbal
salzgitter
laila
freivalds
fretted
tanasugarn
tamarine
scales
ciampino
doldrums
hitman
non-aggression
shelved
tibetans
vermeulen
claw
roche
vaughan
blaise
compaore
terrified
marsh
rajoy
verhofstadt
energy-hungry
f#
q#
demolishing
measles
pro-moscow
akhmad
transvestite
musicians
wie
cameraman
bernardo
immelman
carded
dm
tutsi-dominated
thg
wellington
burying
choke
paraguayan
unep
renounces
abdulkadir
aksu
inflows
practitioners
hindi-speaking
tamed
torches
synagogues
two-shot
rangebound
darwin
stretchered
##,###-strong
beam
spoils
mvp
contemplated
sachin
virender
sehwag
anbar
nadu
halim
khaddam
skyrocket
brno
samarra
newly-built
scholar
republika
srpska
osman
sylvan
meningitis
sasha
laurence
elton
harrison
hamstring
cruiserweight
popularly
tatters
premises
evade
cafes
aa
downer
code-sharing
hiv-aids
sia
loads
beached
awami
year-long
half-time
putt
domitien
ndayizeye
nkurunziza
newly-appointed
tito
schily
ffs
lodges
emaar
slit
psv
eindhoven
robben
purported
audiotape
al-arabiya
cadets
benin
four-shot
anti-coalition
garry
supercomputer
trawlers
acehnese
testifies
buryatia
knocks
saba
yaalon
euthanasia
torching
persil
mmo#
batty
conrad
hollinger
aerobics
workout
mauled
edgar
ernst
hijab
indian-controlled
mercedes
###-million-year-old
maxis
porous
vehement
punt
peace-building
raiding
betsen
dawson
gazzetta
dello
us-appointed
grundig
hydrocarbon
administered
franck
bolshoi
pan-african
alexy
headaches
ducati
undiplomatic
link-up
reinstated
kumba
yala
co-host
patriarchate
togo
post-communist
sleone
war-scarred
fraught
gb
kieron
dyer
evaluation
assassin
verizon
peoplesoft
neville
waite
hurry
rations
daniels
detachment
hostage-takers
clutches
tactical
irb
gong
panther
kamchatka
cellphone
##-yard
steelers
oilers
pitcairn
meddle
nash
mavericks
non-hostile
sweetened
buyback
chee-hwa
casio
omdurman
skippered
suffocating
roland
coffins
cortege
halves
kahn
goalkeeping
epcos
talismanic
kicker
becks
wilko
mlp
hertha
indulging
punters
ewe
let-up
sceptical
halved
burberry
felix
magath
kaiserslautern
klose
bpd
anglo-american
bangladeshis
overflowing
mizoram
adventurous
mcrae
paris-dakar
livingstone
hermes
desailly
friedrich
scepticism
automation
hurghada
bettina
goislard
tireless
livorno
kits
transdniestr
stipe
mesic
nationhood
directionless
vukovar
commemorates
maersk
nixes
designation
launcher
slavia
pflp-gc
klm
wada
harvey
parry
deschamps
deficient
csa
evoked
unauthorised
gently
counter-terror
kay
kerr
lansdowne
insurgent
protectionist
frets
gps
team-mate
line-ups
reinstatement
lilly
career-high
anti-asian
chinese-american
coca-cola
francophone
youngsters
conquerors
kookmin
wumart
rower
nzealand
mammal
extinction
renaud
goff
millar
commonly
al-maktoum
wam
klaus-peter
predator
wasim
techs
acceleration
norwegian-backed
mindanao
qualifications
emi
gazprom
israel-jordan
j
sainsbury
i-mode
queued
semi-finalists
interrupts
handler
hispano
sch
wiesenthal
deportations
baquba
seeds
alerts
democratization
runners-up
thapa
emerson
kalam
engulfing
gothenburg
boulami
steeplechase
autobiography
erich
priebke
replicate
swoops
foresees
dowry
heroine
velazquez
##-million-euro
marring
awol
team-mates
diarra
menem
cecilia
jeer
environmentally
agricole
soviets
marwan
moasher
beaujolais
nouveau
polluted
pesticides
emotionally
tergat
weir
toms
tees
certificate
potato
molestation
shark
pups
ex-rebel
banquet
biometric
us-british
basked
famer
falcons
vick
antique
cats
trainers
tragedies
ming
abizaid
tipping
belarusian
irina
diesel
inroads
democracies
turtle
##kg
rogge
campos
bjp
oversold
supervisory
gerd
purple
gun-toting
divestments
ifc
hallmarks
azhar
compares
pkn
orlen
us-owned
chevrontexaco
bilfinger
montenegrin
dolphin
lastminute.com
consul-general
besiktas
abhijit
kale
lng
sanader
flinch
one-shot
sabic
shantytown
nykaenen
tabloids
one-dayers
sexiest
heartthrob
shadows
ion
iliescu
pilgrim
consul
contents
goalie
hodge
penned
leicestershire
ex-rebels
chipmaker
micro
dresden
amd
gazza
dundee
odi
prostate
oxford
coincide
ebeid
moskow
idol
delicacy
sturgeon
spector
highly-rated
zayed
al-nahyan
worldcom
ebbers
#e#
nyse
thompson
non-essential
afc
strange
saboteurs
grams
harbour
offsets
speedster
cautions
busan
stamped
scaling
shorts
red-faced
coldplay
civilisation
isidro
camacho
outfield
dacko
deflation
preacher
danone
cart
six-under-par
dunlop
equalling
bss
curtailed
government-in-exile
mtu
kkr
maharashtra
jermaine
forceful
holiday-shortened
khomeini
mcenroe
shyi-kun
allrounder
british-led
larnaca
crespo
shaun
blas
ople
villepin
gabonese
fusion
thermonuclear
nepa
transparent
turn-out
kanoute
jeopardise
welteke
ecumenical
sculpture
leyla
zana
nicholas
anti-impotence
cialis
simitis
fda
kedo
maturana
gasp
journeyman
steadies
mls
pfizer
kilogram
canadiens
birdied
four-under-par
torrance
leaderboard
calgary
willie
saad
torched
jal
bourbon
military-style
nagoya
j-league
croatians
showtime
kumar
shamed
cesare
taj
mahal
rabat
jean-francois
a###-###
gayle
kristina
smigun
freestyle
lo
acer
pro-palestinian
iqbal
midweek
supremo
ecclestone
game-winning
cheltenham
phantom
clean-sweep
canio
foxes
unstuck
drummond
totmianina
maxim
ill-treatment
erik
bode
austrians
collated
victorious
boiling
insolvent
dysentery
gastroenteritis
addict
entertainer
premadasa
cannibal
meghann
shaughnessy
rain-hit
rahim
jinx
rut
qinglin
ze
algarve
exxonmobil
classrooms
fukuoka
dispose
brom
arteta
mcleish
maran
siamese
tassos
preachers
fdd
sdp
rocca
pressley
vieri
zaccheroni
divine
baffled
fta
acrimony
wmc
ravens
fitzgerald
shopkeeper
booby-trapped
crocodiles
stowaways
petronas
balooning
railed
worm
mullah
marat
safin
sparta
seeding
galileo
tsar
ab
medellin
shura
grids
anti-pollution
asbestos
shoaib
gloucestershire
gloucester
fabrizio
barbarians
sell-out
eastman
kodak
metz
laszlo
kovacs
billionaires
mg
rover
cpj
boomed
parvanov
ofi
zdenek
luca
attractions
heatwave
paavo
lipponen
chauffeur
unsolicited
uncover
gouging
euro-atlantic
aek
sistani
olympiakos
morientes
hamdi
uss
trevi
choi
recipe
deployments
disabled
imran
gardener
topless
hamann
heartbreaking
robberies
cola
amatil
myer
unexploded
ordnance
intervening
pro-jakarta
relays
neptune
brokerages
near-term
naji
re-open
captaincy
cricketing
country-wide
anti-jewish
krige
month-old
outpaced
code-share
simplified
chunghwa
vandals
dunkirk
truckers
pioneers
bongo
cake
barbera
burkinabe
farrell
unaids
orphans
bristol
fabian
heartache
big-ticket
pathologist
two-year-old
aer
lingus
a###s
merry
adjara
hdz
effenberg
tangled
mirko
beige
baku
presenter
aboriginals
rfu
zhan
gushed
piquet
ralf
incarcerated
enrique
ramon
saracens
stormers
grenada
forlan
shevchenko
poe
eked
uighur
voronin
religiously-divided
ancestors
errant
jnr
eu-china
macgill
####m
hackett
shortcourse
zedong
hip-hop
softened
full-back
outposts
listless
backer
beira
joachim
deutschland
underpinning
perked
srilankan
sophie
donating
pro-israel
ethnically
nlng
westlb
dormitory
scala
transcripts
velupillai
prabhakaran
albena
denkova
staviski
petrova
tikhonov
helpers
edu
osasuna
strategically
zurab
zhvania
workouts
metalworkers
establishments
bagged
referendums
harmonise
tertiary
collina
rotherham
referenda
cleopatra
gem
gaulle
landings
fugitives
jerzy
braved
galatasaray
wows
astonished
valladolid
christoph
lothar
extinct
shoe-bomber
recruited
braving
banknotes
five-set
state-media
off-limits
polo
mckinnon
non-memory
bok
primorye
hookes
sinhalese
kocharian
retaliatory
sibneft
bichel
conocophillips
rounding
psa
electricite
stealth
tng
console
goethe
snare
amadou
toumani
toure
fathered
fishery
ziege
censor
mania
passi
andersson
punching
arusha
eac
putsch
thunderstorm
salem
combed
all-share
saviola
intesa
mummies
dish
hautamaeki
malysz
velodrome
tyre
ballack
uli
hoeness
curt
schilling
three-game
tucker
anja
paerson
beaching
glance
renovating
standout
goebel
gaddafi
payton
clocks
primed
breaststroke
demolishes
movement\/army
splm\/a
raphael
ibanez
seam
abkhazian
moped
bullion
ackermann
kyrghyzstan
suited
razzaq
spares
reimposed
litmus
multan
glad
chasers
hennessy
signatures
under-pressure
mid-september
dion
columbus
siena
torment
millwall
defenseman
boucher
frontman
oas
mussolini
jonah
lomu
buttle
eyewitness
skinheads
pre-poll
filipina
pettersen
nbk
laxman
featherweight
abetting
anti-retroviral
abramovich
proximity
intravenous
satan
bhutanese
szmajdzinski
reza
edwin
beefs
rescheduling
accumulated
five-time
conceding
maier
plaudits
lid
shipbuilding
hobbit
kowtowing
steroids
###-meter
futures-led
pensioners
chun
doo-hwan
kwangju
kuril
quakes
vigilance
new-look
cherbourg
mates
liars
heightens
leeson
umpiring
fume
malawians
us-brokered
ccfa
headbutting
aberdeen
rijeka
saigon
ong
jaffna
ltte
anson
feeble
amer
bridgestone
tango
d'affaires
dayton
samantha
galbraith
slavonia
exhuming
che
guevara
blake
litter
alphand
harri
holkeri
sinatra
jaguar
number-one
record-setting
lively
psg
jogging
pyramid
deer
snake
###-seat
lasso
vice-chairman
gabriel
reincarnation
panchen
tracing
ferocious
counter-attack
trace
mika
hakkinen
maverick
woolmer
rushdie
ruhollah
pavin
shipwrecked
non-oil
munster
pulsating
anglo
kjus
kresimir
zubak
venezuelans
under-par
penny
petroleos
bastion
punter
mohajir
qaumi
mqm
sindh
paralyses
decomposing
balabagan
set-up
bhopal
arjuna
ranatunga
dismissals
sirivudh
unassailable
confiscation
gis
rehn
weah
deflated
beit
christchurch
###.##-##
helm
aum
shoko
asahara
liquidators
[...]
